<unk>	0
<s>	0
</s>	0
▁이	-0
▁그	-1
▁있	-2
니다	-3
▁아	-4
▁하	-5
▁한	-6
▁가	-7
이다	-8
▁나	-9
▁것	-10
▁수	-11
▁사	-12
▁다	-13
▁일	-14
▁어	-15
으로	-16
▁보	-17
에서	-18
▁자	-19
▁바	-20
▁시	-21
▁만	-22
▁없	-23
▁안	-24
▁마	-25
▁지	-26
▁해	-27
▁거	-28
▁오	-29
▁때	-30
▁있다	-31
▁않	-32
습니다	-33
▁위	-34
▁고	-35
▁모	-36
▁부	-37
▁작	-38
▁기	-39
▁한다	-40
▁정	-41
▁내	-42
들어	-43
▁씨	-44
▁좋	-45
▁무	-46
▁전	-47
▁많	-48
▁대	-49
하는	-50
▁남	-51
▁잘	-52
들이	-53
▁생	-54
▁말	-55
어요	-56
▁주	-57
▁먹	-58
▁여	-59
▁있는	-60
한다	-61
▁더	-62
렇게	-63
▁조	-64
까지	-65
▁같	-66
▁작업	-67
▁소	-68
▁사람	-69
▁할	-70
▁도	-71
▁제	-72
▁물	-73
▁손	-74
▁상	-75
▁1	-76
▁살	-77
니까	-78
지만	-79
▁산	-80
는데	-81
▁건	-82
▁되	-83
▁약	-84
▁그런	-85
▁우	-86
▁들어	-87
입니다	-88
하고	-89
하다	-90
▁못	-91
▁장	-92
▁힘	-93
는다	-94
▁엄	-95
▁돌	-96
하게	-97
머니	-98
▁저	-99
▁집	-100
나무	-101
▁이렇게	-102
▁불	-103
▁남편	-104
라고	-105
▁때문	-106
했다	-107
▁하는	-108
▁비	-109
▁서	-110
▁발	-111
▁동	-112
▁올	-113
▁차	-114
▁두	-115
으면	-116
합니다	-117
▁중	-118
아요	-119
▁마음	-120
▁알	-121
▁위해	-122
▁선	-123
었다	-124
▁그래	-125
▁많이	-126
▁잡	-127
▁따	-128
▁찾	-129
▁나무	-130
▁걸	-131
에는	-132
▁유	-133
▁아내	-134
▁하나	-135
들은	-136
▁그런데	-137
▁것이	-138
▁엄마	-139
▁벌	-140
▁채	-141
▁원	-142
▁날	-143
▁구	-144
다고	-145
▁지금	-146
▁배	-147
에게	-148
▁정도	-149
부터	-150
▁시작	-151
▁인	-152
▁여기	-153
▁게	-154
▁된	-155
▁농	-156
▁또	-157
리는	-158
00	-159
▁과	-160
▁경	-161
▁맛	-162
버지	-163
▁이제	-164
리가	-165
예요	-166
▁2	-167
▁달	-168
▁세	-169
▁줄	-170
▁바로	-171
▁반	-172
▁때문에	-173
▁신	-174
▁시간	-175
▁양	-176
▁3	-177
▁속	-178
▁연	-179
▁재	-180
▁최	-181
▁특	-182
▁드	-183
▁미	-184
▁새	-185
기가	-186
리를	-187
▁얼	-188
보다	-189
▁매	-190
▁준	-191
버섯	-192
▁있습니다	-193
▁공	-194
▁것이다	-195
▁생각	-196
▁번	-197
▁없다	-198
▁계	-199
▁성	-200
▁순	-201
▁끝	-202
리고	-203
▁바다	-204
▁예	-205
▁눈	-206
▁어머니	-207
▁너	-208
▁당	-209
▁방	-210
▁넣	-211
▁분	-212
▁금	-213
일까	-214
진다	-215
▁좋은	-216
▁열	-217
▁오늘	-218
▁일을	-219
▁곳	-220
▁큰	-221
▁합니다	-222
▁노	-223
▁그러	-224
▁왜	-225
려고	-226
▁온	-227
▁아버지	-228
▁진	-229
▁식	-230
▁화	-231
▁우리	-232
하면	-233
▁약초	-234
▁맞	-235
들의	-236
▁다른	-237
▁놓	-238
대로	-239
▁다시	-240
▁거예요	-241
▁그래서	-242
▁단	-243
들을	-244
세요	-245
지고	-246
▁씨는	-247
▁만들어	-248
▁영	-249
▁좀	-250
▁그물	-251
▁내가	-252
기를	-253
▁귀	-254
▁몸	-255
▁했	-256
에요	-257
▁하고	-258
▁요	-259
▁가장	-260
라도	-261
하기	-262
▁딸	-263
▁크	-264
▁하지만	-265
▁들	-266
▁쓰	-267
▁만들	-268
▁넘	-269
어서	-270
▁갈	-271
▁참	-272
▁통	-273
▁이거	-274
기에	-275
해서	-276
▁돌아	-277
▁올라	-278
▁이것	-279
▁결	-280
▁빨	-281
▁문	-282
왔다	-283
▁없는	-284
▁독	-285
▁해야	-286
지는	-287
▁아니	-288
▁김	-289
▁실	-290
▁천	-291
가는	-292
▁간	-293
▁개	-294
▁확	-295
처럼	-296
해야	-297
▁복	-298
▁심	-299
▁직	-300
▁타	-301
▁홍	-302
어야	-303
▁준비	-304
▁막	-305
▁뿌	-306
▁앞	-307
▁피	-308
에도	-309
▁같은	-310
▁떨	-311
▁완	-312
▁잠	-313
▁함	-314
▁너무	-315
▁이런	-316
▁된다	-317
▁5	-318
▁받	-319
▁붙	-320
▁싶	-321
▁항	-322
▁일이	-323
▁채취	-324
▁절	-325
기는	-326
면서	-327
이는	-328
▁어디	-329
▁이곳	-330
▁갑	-331
▁호	-332
▁상황	-333
▁있어요	-334
▁겨	-335
▁담	-336
▁뭐	-337
▁치	-338
▁아들	-339
▁4	-340
▁누	-341
▁버	-342
▁떨어	-343
▁그렇게	-344
▁향	-345
▁계속	-346
▁자연	-347
잖아요	-348
▁감	-349
▁먼	-350
▁나오	-351
▁길	-352
▁애	-353
▁필	-354
▁황	-355
▁것은	-356
▁높	-357
▁돼	-358
▁후	-359
았다	-360
하지	-361
▁있을	-362
▁파	-363
▁농사	-364
▁없이	-365
▁조금	-366
▁않는다	-367
▁데	-368
▁은	-369
▁추	-370
이나	-371
▁따라	-372
▁부부	-373
▁좋아	-374
▁하루	-375
▁관	-376
▁토	-377
▁혼	-378
▁찾아	-379
▁본	-380
▁빠	-381
▁점	-382
▁그리고	-383
▁소나무	-384
▁강	-385
▁난	-386
▁목	-387
▁밥	-388
▁적	-389
라는	-390
분이	-391
▁작업을	-392
▁땅	-393
▁백	-394
씨는	-395
▁할머니	-396
기도	-397
린다	-398
인다	-399
▁씨가	-400
▁쉽	-401
▁10	-402
▁그렇	-403
▁보니	-404
▁것일까	-405
▁입	-406
시간	-407
한테	-408
▁이유	-409
▁함께	-410
됩니다	-411
▁와	-412
▁종	-413
자기	-414
▁동안	-415
▁만든	-416
▁사이	-417
▁얼마	-418
▁죽	-419
▁캐	-420
다가	-421
▁모양	-422
▁어떻	-423
▁마음이	-424
▁사람이	-425
간다	-426
▁무엇	-427
▁않다	-428
▁이상	-429
▁어떻게	-430
▁깨	-431
▁편	-432
드는	-433
▁많은	-434
▁발견	-435
▁이게	-436
▁밤	-437
▁변	-438
▁잔	-439
▁처	-440
▁평	-441
▁아무	-442
▁깊	-443
▁년	-444
▁돈	-445
▁형	-446
네요	-447
만큼	-448
아서	-449
▁하면	-450
▁혼자	-451
▁키	-452
▁팔	-453
됐다	-454
이가	-455
▁건강	-456
▁내려	-457
▁빨리	-458
▁완성	-459
▁작은	-460
▁해요	-461
▁위해서	-462
▁골	-463
▁봐	-464
▁태	-465
▁포	-466
▁20	-467
▁것을	-468
▁중요	-469
▁며	-470
▁쉬	-471
▁허	-472
다는	-473
장을	-474
▁과연	-475
▁모습	-476
▁보이	-477
▁위험	-478
겁니다	-479
▁남편은	-480
▁들어가	-481
▁6	-482
▁삼	-483
▁역	-484
되는	-485
▁한번	-486
▁명	-487
▁색	-488
걱정	-489
내는	-490
르는	-491
졌다	-492
▁되는	-493
이에요	-494
▁꽃	-495
▁뒤	-496
▁몇	-497
▁송	-498
▁운	-499
리에	-500
지를	-501
▁걱정	-502
▁상태	-503
▁박	-504
성이	-505
▁귀한	-506
▁기계	-507
▁다음	-508
▁도와	-509
▁먼저	-510
▁조심	-511
▁최고	-512
▁숨	-513
아야	-514
주는	-515
▁선원	-516
▁않는	-517
▁갑자기	-518
▁얼마나	-519
▁될	-520
인데	-521
▁기다	-522
▁보면	-523
▁사용	-524
▁있어	-525
▁제가	-526
▁확인	-527
적으로	-528
▁끓	-529
▁챙	-530
도록	-531
줘야	-532
▁만큼	-533
▁아이	-534
▁아침	-535
▁어떤	-536
▁힘들	-537
에서는	-538
▁겁니다	-539
▁작업이	-540
▁긴	-541
▁늘	-542
▁음	-543
▁효	-544
밖에	-545
없이	-546
▁같이	-547
▁그때	-548
▁나는	-549
이라고	-550
▁같아요	-551
▁만드는	-552
▁네	-553
▁의	-554
디어	-555
물을	-556
자가	-557
▁가득	-558
▁과정	-559
▁그는	-560
▁기름	-561
▁직접	-562
▁차가	-563
▁했다	-564
▁느	-565
▁몰	-566
▁용	-567
▁철	-568
▁풀	-569
른다	-570
어나	-571
있는	-572
▁순간	-573
▁오래	-574
▁전통	-575
으니까	-576
▁꿀	-577
낸다	-578
모님	-579
본다	-580
적인	-581
해요	-582
▁가족	-583
▁모든	-584
▁아직	-585
▁됩니다	-586
▁시작한다	-587
▁스	-588
▁야	-589
▁얻	-590
▁현	-591
이를	-592
준다	-593
▁겨울	-594
▁살아	-595
▁자신	-596
▁처음	-597
▁특별	-598
▁필요	-599
▁설	-600
▁염	-601
된다	-602
스럽	-603
어가	-604
지가	-605
▁것도	-606
▁잠시	-607
▁사람들이	-608
▁뜨	-609
기로	-610
물이	-611
▁모두	-612
▁손님	-613
▁이번	-614
▁토종	-615
▁특히	-616
▁남편이	-617
▁드디어	-618
▁마음을	-619
▁아들이	-620
▁듯	-621
▁언	-622
▁활	-623
로운	-624
온다	-625
▁엄청	-626
▁때문이다	-627
▁둘	-628
▁망	-629
▁별	-630
▁얘	-631
▁칼	-632
▁행	-633
▁회	-634
겠다	-635
렸다	-636
마다	-637
치를	-638
▁무슨	-639
▁않은	-640
▁온도	-641
▁이때	-642
▁해서	-643
▁아내는	-644
▁등	-645
▁밀	-646
▁육	-647
났다	-648
을까	-649
▁어느	-650
▁이어	-651
▁가지고	-652
▁석	-653
▁왔	-654
▁움	-655
▁익	-656
▁커	-657
▁흙	-658
일이	-659
▁보고	-660
▁수확	-661
▁하지	-662
▁해도	-663
▁나무를	-664
▁꺼	-665
▁머	-666
▁밑	-667
▁외	-668
▁판	-669
나요	-670
시는	-671
▁가격	-672
▁고등	-673
▁고생	-674
▁그냥	-675
▁매일	-676
▁않고	-677
▁음식	-678
▁자식	-679
▁잘라	-680
▁시간이	-681
▁'	-682
▁떼	-683
▁밭	-684
▁초	-685
▁표	-686
▁혹	-687
씨가	-688
우는	-689
▁결국	-690
▁나와	-691
▁소금	-692
▁잡아	-693
▁하는데	-694
kg	-695
▁민	-696
▁출	-697
▁환	-698
가를	-699
거운	-700
수록	-701
이라	-702
▁가는	-703
▁같다	-704
▁먹고	-705
▁아닌	-706
▁재료	-707
▁힘든	-708
들에게	-709
▁그대로	-710
▁아니다	-711
▁중요한	-712
▁광	-713
▁국	-714
▁껍	-715
▁뭔	-716
▁숙	-717
▁옛	-718
▁투	-719
어를	-720
▁건조	-721
▁노력	-722
▁버섯	-723
▁수가	-724
▁수도	-725
▁씨의	-726
▁요즘	-727
▁자라	-728
▁손으로	-729
▁각	-730
▁근	-731
▁녹	-732
▁삶	-733
오는	-734
지도	-735
▁가져	-736
▁맛이	-737
▁먹을	-738
▁방법	-739
▁움직	-740
▁유리	-741
▁이건	-742
▁제일	-743
▁하다	-744
아버지	-745
▁그래도	-746
▁보인다	-747
▁특별한	-748
▁7	-749
▁싸	-750
▁찍	-751
가요	-752
마자	-753
성을	-754
어는	-755
질을	-756
▁30	-757
▁돼요	-758
▁마리	-759
▁며느	-760
▁위한	-761
▁전에	-762
스럽게	-763
자마자	-764
▁아내의	-765
▁최고의	-766
▁8	-767
▁왕	-768
▁접	-769
가지	-770
까요	-771
지면	-772
000	-773
▁가지	-774
▁깊은	-775
▁당신	-776
▁도움	-777
▁때는	-778
▁맛있	-779
▁먹는	-780
▁모르	-781
▁신경	-782
▁이용	-783
▁절벽	-784
▁지나	-785
▁그물을	-786
▁아들은	-787
▁오늘은	-788
▁꼭	-789
▁늑	-790
▁뭘	-791
▁봄	-792
▁섬	-793
거든	-794
는지	-795
스러	-796
잖아	-797
치가	-798
▁거야	-799
▁그날	-800
▁문제	-801
▁알려	-802
▁일반	-803
▁집에	-804
▁힘이	-805
▁이유는	-806
▁있으면	-807
▁토종벌	-808
▁힘들어	-809
▁갖	-810
▁괜	-811
▁교	-812
▁냄	-813
▁덕	-814
▁청	-815
기만	-816
대를	-817
더니	-818
어도	-819
으니	-820
정을	-821
▁대체	-822
▁더욱	-823
▁드러	-824
▁안에	-825
▁옛날	-826
▁자리	-827
▁항상	-828
이라도	-829
▁까	-830
▁볼	-831
▁술	-832
▁씻	-833
▁암	-834
▁옆	-835
▁옮	-836
▁찔	-837
▁털	-838
긴다	-839
▁무게	-840
▁바람	-841
▁서로	-842
▁쉽게	-843
▁왔다	-844
▁위에	-845
▁제작	-846
▁모습을	-847
▁부모님	-848
▁일일이	-849
▁늦	-850
▁듣	-851
▁빛	-852
▁쪽	-853
▁틀	-854
▁험	-855
간에	-856
느라	-857
려면	-858
사를	-859
었던	-860
장에	-861
▁가까	-862
▁가능	-863
▁가야	-864
▁고추	-865
▁구멍	-866
▁도착	-867
▁여름	-868
▁조업	-869
▁찾는	-870
거든요	-871
었어요	-872
에서도	-873
▁남편의	-874
▁아내가	-875
▁여기서	-876
▁없습니다	-877
▁낚	-878
▁떠	-879
▁숯	-880
▁쓸	-881
▁옥	-882
갔다	-883
분을	-884
이면	-885
자는	-886
▁눈에	-887
▁되어	-888
▁말벌	-889
▁말을	-890
▁바위	-891
▁살짝	-892
▁쉽지	-893
▁아빠	-894
▁아프	-895
▁역시	-896
▁이루	-897
▁자체	-898
▁나오는	-899
▁어머니가	-900
▁할아버지	-901
▁든	-902
▁딱	-903
▁병	-904
▁섞	-905
▁임	-906
▁첫	-907
▁친	-908
려는	-909
리면	-910
리지	-911
작업	-912
지막	-913
했던	-914
▁경우	-915
▁끝나	-916
▁나서	-917
▁넣고	-918
▁따로	-919
▁만나	-920
▁물을	-921
▁미안	-922
▁새벽	-923
▁씨다	-924
▁얼굴	-925
▁없어	-926
▁여러	-927
▁와서	-928
▁장인	-929
▁제거	-930
▁그러면	-931
▁엄마는	-932
▁자리를	-933
▁차가버섯	-934
▁급	-935
▁끌	-936
▁솜	-937
▁쌓	-938
▁칠	-939
▁탄	-940
되어	-941
심히	-942
있다	-943
전히	-944
집을	-945
치는	-946
▁가게	-947
▁가마	-948
▁거죠	-949
▁들고	-950
▁무언	-951
▁사고	-952
▁생명	-953
▁일은	-954
▁자꾸	-955
▁점점	-956
▁찔레	-957
▁항아	-958
겠어요	-959
▁뜨거운	-960
▁마지막	-961
▁먹으면	-962
▁보이지	-963
▁제대로	-964
▁하니까	-965
▁무엇일까	-966
▁검	-967
▁군	-968
▁굴	-969
▁꼬	-970
▁끊	-971
▁끼	-972
▁놀	-973
▁봉	-974
▁써	-975
▁터	-976
▁품	-977
거나	-978
도가	-979
들도	-980
려야	-981
르고	-982
이고	-983
장이	-984
▁가서	-985
▁겨우	-986
▁경력	-987
▁늑대	-988
▁단단	-989
▁많다	-990
▁아주	-991
▁오랜	-992
▁원래	-993
▁전화	-994
▁정말	-995
▁하기	-996
셨어요	-997
▁수밖에	-998
▁엄마가	-999
▁여기에	-1000
▁이거는	-1001
▁이것은	-1002
▁일이다	-1003
▁있다고	-1004
▁있다는	-1005
▁있었다	-1006
▁정도로	-1007
▁것입니다	-1008
▁9	-1009
▁닭	-1010
▁덜	-1011
▁베	-1012
▁욕	-1013
▁잎	-1014
▁짓	-1015
▁풍	-1016
내고	-1017
이에	-1018
일을	-1019
지지	-1020
질이	-1021
▁골쇄	-1022
▁그릇	-1023
▁됐다	-1024
▁물이	-1025
▁저녁	-1026
▁정확	-1027
▁주는	-1028
들이다	-1029
으로도	-1030
▁바다에	-1031
▁우리가	-1032
▁있는데	-1033
▁시작했다	-1034
▁꿈	-1035
▁낳	-1036
▁됐	-1037
▁멈	-1038
▁메	-1039
▁묻	-1040
▁뼈	-1041
▁앉	-1042
▁잣	-1043
▁총	-1044
▁톱	-1045
대한	-1046
력을	-1047
선을	-1048
씨의	-1049
우스	-1050
음을	-1051
인지	-1052
주고	-1053
품이	-1054
▁고기	-1055
▁끓여	-1056
▁다르	-1057
▁달리	-1058
▁되면	-1059
▁말이	-1060
▁바닥	-1061
▁붙어	-1062
▁아래	-1063
▁아파	-1064
▁언제	-1065
▁저희	-1066
▁좋다	-1067
▁진짜	-1068
▁형태	-1069
나무는	-1070
▁그렇다	-1071
▁그만큼	-1072
▁약초를	-1073
▁아버지는	-1074
▁작업이다	-1075
▁답	-1076
▁땀	-1077
▁빗	-1078
▁옷	-1079
▁체	-1080
▁흔	-1081
구가	-1082
시고	-1083
어버	-1084
우고	-1085
이기	-1086
자미	-1087
▁15	-1088
▁괜찮	-1089
▁깨끗	-1090
▁누구	-1091
▁다양	-1092
▁대신	-1093
▁도라	-1094
▁며칠	-1095
▁물고	-1096
▁바닷	-1097
▁상처	-1098
▁생활	-1099
▁서서	-1100
▁서울	-1101
▁선장	-1102
▁야생	-1103
▁어렵	-1104
▁연결	-1105
▁오후	-1106
▁준다	-1107
▁크기	-1108
▁열심히	-1109
▁이유가	-1110
▁작업은	-1111
▁준비를	-1112
▁지금은	-1113
▁깎	-1114
▁맨	-1115
▁멀	-1116
▁멧	-1117
▁빼	-1118
▁습	-1119
▁코	-1120
둘러	-1121
려서	-1122
미터	-1123
수를	-1124
운데	-1125
지요	-1126
키는	-1127
▁50	-1128
▁가을	-1129
▁거의	-1130
▁그것	-1131
▁나가	-1132
▁넣어	-1133
▁멧돼	-1134
▁물건	-1135
▁물에	-1136
▁뭔가	-1137
▁본다	-1138
▁부분	-1139
▁부위	-1140
▁사랑	-1141
▁산에	-1142
▁서운	-1143
▁안전	-1144
▁얘기	-1145
▁있기	-1146
▁조각	-1147
▁주방	-1148
▁힘을	-1149
▁골쇄보	-1150
▁마음에	-1151
▁서둘러	-1152
▁상황이다	-1153
▁꾸	-1154
▁뚫	-1155
▁뛰	-1156
▁벗	-1157
▁숭	-1158
▁웃	-1159
▁잊	-1160
▁창	-1161
▁틈	-1162
▁폭	-1163
▁학	-1164
▁흐	-1165
과가	-1166
년에	-1167
동안	-1168
라면	-1169
력이	-1170
소리	-1171
수가	-1172
자를	-1173
조차	-1174
지기	-1175
체를	-1176
해진	-1177
▁40	-1178
▁그만	-1179
▁몸에	-1180
▁번째	-1181
▁벌써	-1182
▁복령	-1183
▁비해	-1184
▁뿌리	-1185
▁산행	-1186
▁손을	-1187
▁손이	-1188
▁손질	-1189
▁약재	-1190
▁얼른	-1191
▁올해	-1192
▁일단	-1193
▁있고	-1194
▁잘못	-1195
▁저는	-1196
▁전복	-1197
▁주로	-1198
▁집을	-1199
▁챙겨	-1200
▁한창	-1201
버섯은	-1202
하면서	-1203
▁100	-1204
▁그러나	-1205
▁나무에	-1206
▁도와주	-1207
▁사람들	-1208
▁속에서	-1209
▁이것이	-1210
▁그러니까	-1211
▁아버지가	-1212
▁위해서는	-1213
cm	-1214
▁면	-1215
▁뿐	-1216
▁승	-1217
▁울	-1218
▁잃	-1219
▁질	-1220
▁책	-1221
▁척	-1222
▁충	-1223
▁침	-1224
▁혈	-1225
개월	-1226
난다	-1227
량이	-1228
려요	-1229
상이	-1230
새가	-1231
식을	-1232
어내	-1233
▁게르	-1234
▁공장	-1235
▁그게	-1236
▁꺼내	-1237
▁끝이	-1238
▁농장	-1239
▁높은	-1240
▁답답	-1241
▁동생	-1242
▁바빠	-1243
▁배를	-1244
▁본격	-1245
▁불을	-1246
▁사라	-1247
▁사실	-1248
▁성공	-1249
▁소리	-1250
▁속에	-1251
▁수액	-1252
▁시각	-1253
▁이미	-1254
▁자세	-1255
▁잡는	-1256
▁최근	-1257
▁평생	-1258
▁필수	-1259
라고요	-1260
해진다	-1261
▁기분이	-1262
▁도움이	-1263
▁없어요	-1264
▁오늘도	-1265
▁이곳에	-1266
▁이번엔	-1267
▁좋아요	-1268
었습니다	-1269
▁모양이다	-1270
▁갯	-1271
▁걷	-1272
▁곧	-1273
▁굵	-1274
▁꼼	-1275
▁냉	-1276
▁쇳	-1277
▁희	-1278
놓고	-1279
능이	-1280
대가	-1281
선다	-1282
시아	-1283
인이	-1284
하며	-1285
▁그가	-1286
▁그럼	-1287
▁긴장	-1288
▁날이	-1289
▁다녀	-1290
▁다니	-1291
▁되고	-1292
▁말고	-1293
▁바쁜	-1294
▁복잡	-1295
▁부드	-1296
▁비닐	-1297
▁식사	-1298
▁쓰는	-1299
▁영양	-1300
▁이걸	-1301
▁절대	-1302
▁점심	-1303
▁주변	-1304
▁지네	-1305
▁지켜	-1306
▁집안	-1307
▁차례	-1308
▁천연	-1309
▁특징	-1310
▁행복	-1311
▁황토	-1312
는데요	-1313
립니다	-1314
▁나무가	-1315
▁돌아가	-1316
▁때마다	-1317
▁만들기	-1318
▁며느리	-1319
▁아니고	-1320
▁아무리	-1321
▁엄청난	-1322
▁여기는	-1323
▁일어나	-1324
▁집에서	-1325
▁한다고	-1326
▁좋습니다	-1327
▁곤	-1328
▁닿	-1329
▁싫	-1330
▁옻	-1331
▁짜	-1332
▁헤	-1333
▁훨	-1334
▁흑	-1335
가락	-1336
가루	-1337
근봉	-1338
나라	-1339
놓은	-1340
도를	-1341
리기	-1342
분에	-1343
섰다	-1344
에겐	-1345
워서	-1346
자의	-1347
중에	-1348
해도	-1349
▁가만	-1350
▁간다	-1351
▁공부	-1352
▁기술	-1353
▁기운	-1354
▁나면	-1355
▁날씨	-1356
▁넘어	-1357
▁네가	-1358
▁달려	-1359
▁대한	-1360
▁마치	-1361
▁먹으	-1362
▁못한	-1363
▁물론	-1364
▁발효	-1365
▁벌집	-1366
▁보통	-1367
▁사는	-1368
▁산을	-1369
▁살고	-1370
▁색깔	-1371
▁속상	-1372
▁손에	-1373
▁순식	-1374
▁식당	-1375
▁신선	-1376
▁씨도	-1377
▁아픈	-1378
▁양은	-1379
▁오르	-1380
▁자란	-1381
▁진액	-1382
▁홍어	-1383
▁훨씬	-1384
려고요	-1385
스러운	-1386
이라는	-1387
▁거에요	-1388
▁농사를	-1389
▁보이는	-1390
▁사람은	-1391
▁송근봉	-1392
▁약초꾼	-1393
▁올라가	-1394
▁이곳은	-1395
▁있어서	-1396
▁있어야	-1397
▁있을까	-1398
▁자신의	-1399
▁중이다	-1400
▁필요한	-1401
▁하나의	-1402
▁향한다	-1403
▁같습니다	-1404
▁않습니다	-1405
▁조심스럽게	-1406
▁겉	-1407
▁견	-1408
▁굉	-1409
▁낮	-1410
▁돕	-1411
▁똑	-1412
▁멸	-1413
▁액	-1414
▁윤	-1415
▁즐	-1416
▁칡	-1417
▁테	-1418
▁펼	-1419
개의	-1420
게는	-1421
냈다	-1422
다시	-1423
되고	-1424
만에	-1425
보니	-1426
색을	-1427
소금	-1428
속에	-1429
스로	-1430
시에	-1431
어난	-1432
와서	-1433
통을	-1434
▁12	-1435
▁가진	-1436
▁강한	-1437
▁걸까	-1438
▁곳은	-1439
▁그녀	-1440
▁기본	-1441
▁길을	-1442
▁나도	-1443
▁나온	-1444
▁난다	-1445
▁달라	-1446
▁또한	-1447
▁만에	-1448
▁머리	-1449
▁몸을	-1450
▁바쁘	-1451
▁반찬	-1452
▁병원	-1453
▁보는	-1454
▁보양	-1455
▁불편	-1456
▁사과	-1457
▁사위	-1458
▁살펴	-1459
▁생선	-1460
▁세계	-1461
▁세월	-1462
▁수십	-1463
▁연옥	-1464
▁일하	-1465
▁자작	-1466
▁장수	-1467
▁타고	-1468
▁타조	-1469
▁혹시	-1470
▁확실	-1471
하는데	-1472
▁남편을	-1473
▁생각이	-1474
▁서서히	-1475
▁아니라	-1476
▁여전히	-1477
▁이제는	-1478
▁하려고	-1479
▁했어요	-1480
더라고요	-1481
▁들어가는	-1482
▁무언가를	-1483
▁사람들은	-1484
▁순식간에	-1485
▁갓	-1486
▁글	-1487
▁꽁	-1488
▁꽤	-1489
▁맡	-1490
▁쏟	-1491
▁트	-1492
▁햇	-1493
▁흘	-1494
게요	-1495
겠어	-1496
바람	-1497
보는	-1498
시면	-1499
였다	-1500
장히	-1501
정도	-1502
져요	-1503
히는	-1504
▁가시	-1505
▁감태	-1506
▁거다	-1507
▁곳에	-1508
▁구워	-1509
▁근데	-1510
▁남아	-1511
▁다행	-1512
▁도구	-1513
▁돈이	-1514
▁두께	-1515
▁딸이	-1516
▁똑같	-1517
▁맨날	-1518
▁먹어	-1519
▁멀리	-1520
▁발걸	-1521
▁새끼	-1522
▁성격	-1523
▁숙성	-1524
▁요리	-1525
▁이동	-1526
▁이른	-1527
▁이름	-1528
▁이후	-1529
▁있게	-1530
▁자기	-1531
▁장어	-1532
▁저기	-1533
▁정리	-1534
▁중에	-1535
▁지난	-1536
▁찾기	-1537
▁최상	-1538
▁피해	-1539
▁허리	-1540
▁홍합	-1541
갑니다	-1542
나무를	-1543
▁고등어	-1544
▁굉장히	-1545
▁돌소금	-1546
▁부부는	-1547
▁시작한	-1548
▁않으면	-1549
▁우리는	-1550
▁이루어	-1551
▁자연산	-1552
▁집으로	-1553
▁우리나라	-1554
▁필요하다	-1555
▁할머니는	-1556
▁굳	-1557
▁굽	-1558
▁궁	-1559
▁덩	-1560
▁밝	-1561
▁벽	-1562
▁봤	-1563
▁뽑	-1564
▁삽	-1565
▁십	-1566
▁싹	-1567
▁억	-1568
▁젊	-1569
▁축	-1570
▁카	-1571
▁튀	-1572
▁합	-1573
길을	-1574
끄러	-1575
년이	-1576
님이	-1577
도로	-1578
동을	-1579
론가	-1580
료를	-1581
부가	-1582
상치	-1583
석은	-1584
시켜	-1585
아들	-1586
음이	-1587
자고	-1588
장은	-1589
줘요	-1590
천히	-1591
품을	-1592
▁가루	-1593
▁갈아	-1594
▁같아	-1595
▁갯벌	-1596
▁경험	-1597
▁그랬	-1598
▁그의	-1599
▁끌어	-1600
▁나왔	-1601
▁낚시	-1602
▁남은	-1603
▁마무	-1604
▁마을	-1605
▁막내	-1606
▁많아	-1607
▁맞춰	-1608
▁모피	-1609
▁밥을	-1610
▁방향	-1611
▁보관	-1612
▁보기	-1613
▁보여	-1614
▁분주	-1615
▁산양	-1616
▁어린	-1617
▁예민	-1618
▁유지	-1619
▁일정	-1620
▁전부	-1621
▁종류	-1622
▁주문	-1623
▁직원	-1624
▁집어	-1625
▁집중	-1626
▁태양	-1627
▁풍부	-1628
▁환경	-1629
가지고	-1630
되었다	-1631
릅니다	-1632
었는데	-1633
줍니다	-1634
▁가까이	-1635
▁가만히	-1636
▁나섰다	-1637
▁다양한	-1638
▁다행히	-1639
▁되었다	-1640
▁또다시	-1641
▁만든다	-1642
▁못했다	-1643
▁부부가	-1644
▁불리는	-1645
▁사이에	-1646
▁아내를	-1647
▁위험한	-1648
▁이용해	-1649
▁천천히	-1650
▁들어간다	-1651
▁발견했다	-1652
▁어디론가	-1653
▁어머니는	-1654
▁중요하다	-1655
▁값	-1656
▁낙	-1657
▁납	-1658
▁낫	-1659
▁넓	-1660
▁뚝	-1661
▁띄	-1662
▁맑	-1663
▁몽	-1664
▁뱀	-1665
▁법	-1666
▁빚	-1667
▁쉴	-1668
▁썩	-1669
▁썰	-1670
▁얇	-1671
▁찌	-1672
▁택	-1673
▁퍼	-1674
▁펴	-1675
▁프	-1676
개구	-1677
나귀	-1678
도는	-1679
만한	-1680
부분	-1681
서는	-1682
석을	-1683
소를	-1684
심을	-1685
았던	-1686
야만	-1687
정이	-1688
제로	-1689
져서	-1690
주를	-1691
지에	-1692
▁가면	-1693
▁걸어	-1694
▁곤충	-1695
▁관리	-1696
▁군락	-1697
▁기록	-1698
▁끝에	-1699
▁느껴	-1700
▁대리	-1701
▁되지	-1702
▁될까	-1703
▁두고	-1704
▁때가	-1705
▁마친	-1706
▁맛은	-1707
▁맛을	-1708
▁매달	-1709
▁무늬	-1710
▁밖에	-1711
▁벌통	-1712
▁부모	-1713
▁산삼	-1714
▁선별	-1715
▁속이	-1716
▁시어	-1717
▁싶은	-1718
▁아까	-1719
▁않게	-1720
▁애들	-1721
▁양망	-1722
▁어떨	-1723
▁어려	-1724
▁없고	-1725
▁없을	-1726
▁역할	-1727
▁열매	-1728
▁옥수	-1729
▁올려	-1730
▁운영	-1731
▁인생	-1732
▁있던	-1733
▁자주	-1734
▁재배	-1735
▁전어	-1736
▁정신	-1737
▁제주	-1738
▁좋고	-1739
▁주고	-1740
▁차로	-1741
▁통발	-1742
▁판매	-1743
▁한국	-1744
▁한편	-1745
▁호두	-1746
▁황소	-1747
도에서	-1748
면서도	-1749
속에서	-1750
옵니다	-1751
집니다	-1752
하기도	-1753
▁겨우살	-1754
▁나무의	-1755
▁나온다	-1756
▁나한테	-1757
▁당나귀	-1758
▁말라고	-1759
▁먹어야	-1760
▁모르는	-1761
▁문제가	-1762
▁사람의	-1763
▁산에서	-1764
▁새로운	-1765
▁손님이	-1766
▁있도록	-1767
▁있지만	-1768
▁크기가	-1769
▁하나씩	-1770
▁효과가	-1771
▁가득하다	-1772
▁그렇다면	-1773
▁바다에서	-1774
▁아버지의	-1775
▁어머니의	-1776
▁있으니까	-1777
▁조심해야	-1778
▁좋아하는	-1779
▁찔레버섯	-1780
▁녀	-1781
▁밟	-1782
▁붉	-1783
▁숲	-1784
▁쓴	-1785
▁엉	-1786
▁응	-1787
▁즉	-1788
▁짐	-1789
▁찬	-1790
▁홀	-1791
▁휘	-1792
것도	-1793
구를	-1794
당히	-1795
데요	-1796
도의	-1797
루미	-1798
리의	-1799
말로	-1800
비를	-1801
빨리	-1802
상에	-1803
색의	-1804
씨를	-1805
어진	-1806
엽초	-1807
워요	-1808
인가	-1809
일은	-1810
쟁이	-1811
줄을	-1812
쪽에	-1813
쳤다	-1814
킨다	-1815
하니	-1816
▁60	-1817
▁갔다	-1818
▁것만	-1819
▁금고	-1820
▁길이	-1821
▁껍질	-1822
▁꽃게	-1823
▁나요	-1824
▁나타	-1825
▁남자	-1826
▁내는	-1827
▁놓은	-1828
▁다리	-1829
▁다이	-1830
▁대형	-1831
▁둘러	-1832
▁따뜻	-1833
▁맞추	-1834
▁받아	-1835
▁복어	-1836
▁부러	-1837
▁붙여	-1838
▁비파	-1839
▁생긴	-1840
▁생산	-1841
▁쏟아	-1842
▁씨를	-1843
▁아닐	-1844
▁알아	-1845
▁양식	-1846
▁양이	-1847
▁어부	-1848
▁오빠	-1849
▁운반	-1850
▁위치	-1851
▁의미	-1852
▁이웃	-1853
▁이해	-1854
▁잔뜩	-1855
▁정성	-1856
▁좋지	-1857
▁줄을	-1858
▁차를	-1859
▁하늘	-1860
▁한마	-1861
▁해결	-1862
▁험한	-1863
▁회색	-1864
냅니다	-1865
는데도	-1866
니까요	-1867
루미늄	-1868
았는데	-1869
인데요	-1870
했어요	-1871
▁가격이	-1872
▁그래요	-1873
▁기름을	-1874
▁대나무	-1875
▁덕분에	-1876
▁된다고	-1877
▁때까지	-1878
▁떨어진	-1879
▁마무리	-1880
▁마음은	-1881
▁못하고	-1882
▁뿌리를	-1883
▁생각을	-1884
▁성분이	-1885
▁않도록	-1886
▁않았다	-1887
▁알려져	-1888
▁앞으로	-1889
▁온도가	-1890
▁왔어요	-1891
▁일엽초	-1892
▁자세히	-1893
▁자체가	-1894
▁제작진	-1895
▁쪽으로	-1896
▁채취한	-1897
았습니다	-1898
졌습니다	-1899
▁시간이다	-1900
▁아침부터	-1901
▁알루미늄	-1902
▁황소개구	-1903
km	-1904
▁둥	-1905
▁믿	-1906
▁밖	-1907
▁범	-1908
▁벼	-1909
▁붓	-1910
▁뻔	-1911
▁싣	-1912
▁증	-1913
감이	-1914
그램	-1915
나는	-1916
다란	-1917
라서	-1918
리다	-1919
리로	-1920
맛이	-1921
명한	-1922
상을	-1923
석이	-1924
스를	-1925
심이	-1926
어져	-1927
웠다	-1928
잡이	-1929
주면	-1930
지뽕	-1931
치면	-1932
키고	-1933
킬로	-1934
화를	-1935
▁개의	-1936
▁걸려	-1937
▁결혼	-1938
▁고민	-1939
▁고집	-1940
▁궁금	-1941
▁그야	-1942
▁김대	-1943
▁깊어	-1944
▁놓을	-1945
▁눈이	-1946
▁느낌	-1947
▁도시	-1948
▁둘째	-1949
▁든든	-1950
▁떼어	-1951
▁마당	-1952
▁목화	-1953
▁몸이	-1954
▁몽골	-1955
▁무서	-1956
▁보물	-1957
▁보호	-1958
▁부족	-1959
▁부탁	-1960
▁분리	-1961
▁않아	-1962
▁어깨	-1963
▁어묵	-1964
▁언니	-1965
▁예전	-1966
▁이야	-1967
▁인기	-1968
▁일도	-1969
▁작품	-1970
▁저도	-1971
▁전혀	-1972
▁조절	-1973
▁주인	-1974
▁주전	-1975
▁진행	-1976
▁철갑	-1977
▁추출	-1978
▁키워	-1979
▁탄생	-1980
▁통을	-1981
▁투망	-1982
▁편백	-1983
▁포기	-1984
▁한숨	-1985
▁한참	-1986
▁해녀	-1987
▁해마	-1988
▁현실	-1989
▁홍게	-1990
▁황칠	-1991
겠다는	-1992
더라도	-1993
로부터	-1994
장에서	-1995
하우스	-1996
하지만	-1997
▁가마솥	-1998
▁가자미	-1999
▁가치가	-2000
▁거대한	-2001
▁것으로	-2002
▁과정이	-2003
▁그들은	-2004
▁그물이	-2005
▁기계가	-2006
▁껍질을	-2007
▁꾸지뽕	-2008
▁도자기	-2009
▁따라서	-2010
▁모양을	-2011
▁못한다	-2012
▁무엇을	-2013
▁벌들이	-2014
▁부부의	-2015
▁뿌리가	-2016
▁뿌리는	-2017
▁사람도	-2018
▁소리가	-2019
▁약초가	-2020
▁엄마의	-2021
▁완성된	-2022
▁위에서	-2023
▁일하는	-2024
▁작업에	-2025
▁하나가	-2026
▁하루에	-2027
했습니다	-2028
▁것일까요	-2029
▁그야말로	-2030
▁도착했다	-2031
▁만들어진	-2032
▁이곳에서	-2033
▁힘들어요	-2034
..	-2035
▁갔	-2036
▁곱	-2037
▁놔	-2038
▁덮	-2039
▁맥	-2040
▁블	-2041
▁쇠	-2042
▁씹	-2043
▁업	-2044
▁엿	-2045
▁젓	-2046
▁졸	-2047
▁착	-2048
▁쳐	-2049
▁탁	-2050
▁폐	-2051
▁푸	-2052
계를	-2053
길이	-2054
드시	-2055
들과	-2056
래를	-2057
목을	-2058
봐야	-2059
셨다	-2060
시다	-2061
신다	-2062
약을	-2063
에선	-2064
움을	-2065
으며	-2066
이자	-2067
이지	-2068
일에	-2069
장님	-2070
치고	-2071
하나	-2072
하시	-2073
▁거친	-2074
▁거푸	-2075
▁고된	-2076
▁고맙	-2077
▁고정	-2078
▁고향	-2079
▁곳이	-2080
▁공간	-2081
▁구조	-2082
▁날카	-2083
▁냄비	-2084
▁넘게	-2085
▁넘는	-2086
▁놓고	-2087
▁대로	-2088
▁대장	-2089
▁되기	-2090
▁두드	-2091
▁땅을	-2092
▁마늘	-2093
▁마련	-2094
▁매번	-2095
▁먹기	-2096
▁면역	-2097
▁문양	-2098
▁반가	-2099
▁반복	-2100
▁반응	-2101
▁반죽	-2102
▁발생	-2103
▁배우	-2104
▁별로	-2105
▁보내	-2106
▁봐도	-2107
▁부딪	-2108
▁분명	-2109
▁붉은	-2110
▁빠져	-2111
▁산다	-2112
▁생기	-2113
▁설치	-2114
▁속을	-2115
▁수는	-2116
▁숨어	-2117
▁시기	-2118
▁신중	-2119
▁싶다	-2120
▁아기	-2121
▁아닙	-2122
▁어머	-2123
▁연구	-2124
▁예쁘	-2125
▁왕택	-2126
▁위로	-2127
▁이럴	-2128
▁인조	-2129
▁장사	-2130
▁젊은	-2131
▁중심	-2132
▁줘야	-2133
▁책임	-2134
▁추위	-2135
▁큰일	-2136
▁키우	-2137
▁평소	-2138
▁하게	-2139
▁함유	-2140
▁향이	-2141
▁화려	-2142
만큼은	-2143
버렸다	-2144
이었다	-2145
장으로	-2146
쪽으로	-2147
하기만	-2148
하려고	-2149
한다고	-2150
,000	-2151
▁201	-2152
▁500	-2153
▁걱정이	-2154
▁것보다	-2155
▁그렇기	-2156
▁김대립	-2157
▁나중에	-2158
▁냄새가	-2159
▁대부분	-2160
▁도움을	-2161
▁마음도	-2162
▁모습이	-2163
▁모양의	-2164
▁미끄러	-2165
▁바람이	-2166
▁보니까	-2167
▁보물을	-2168
▁보양식	-2169
▁부드럽	-2170
▁상태를	-2171
▁아들을	-2172
▁아이고	-2173
▁안으로	-2174
▁앞에서	-2175
▁약성이	-2176
▁어느새	-2177
▁엄마를	-2178
▁이것도	-2179
▁이들이	-2180
▁자라는	-2181
▁장모님	-2182
▁정확히	-2183
▁좋다고	-2184
▁참나무	-2185
▁하나를	-2186
▁하우스	-2187
▁했는데	-2188
겠습니다	-2189
▁생각하면	-2190
▁선원들의	-2191
▁순간이다	-2192
▁시어머니	-2193
▁아들에게	-2194
▁예로부터	-2195
▁올라오는	-2196
▁자작나무	-2197
▁지금까지	-2198
▁찾아왔다	-2199
▁본격적으로	-2200
▁곁	-2201
▁권	-2202
▁논	-2203
▁던	-2204
▁땐	-2205
▁뚜	-2206
▁뜻	-2207
▁슬	-2208
▁쌀	-2209
▁짙	-2210
▁탈	-2211
▁퇴	-2212
▁휴	-2213
가며	-2214
가오	-2215
고를	-2216
고요	-2217
내야	-2218
년을	-2219
년의	-2220
되지	-2221
랐다	-2222
롭게	-2223
르면	-2224
림을	-2225
마늄	-2226
물은	-2227
버린	-2228
보감	-2229
봐요	-2230
산을	-2231
소가	-2232
소한	-2233
었을	-2234
용을	-2235
으러	-2236
이프	-2237
전을	-2238
조건	-2239
지런	-2240
지로	-2241
째로	-2242
테랑	-2243
핀다	-2244
히지	-2245
▁80	-2246
▁가요	-2247
▁가죽	-2248
▁간단	-2249
▁검은	-2250
▁고단	-2251
▁국내	-2252
▁그거	-2253
▁금속	-2254
▁기대	-2255
▁기억	-2256
▁나간	-2257
▁나갈	-2258
▁나올	-2259
▁내야	-2260
▁노랑	-2261
▁단청	-2262
▁대학	-2263
▁독이	-2264
▁동네	-2265
▁동의	-2266
▁둥근	-2267
▁든다	-2268
▁딸은	-2269
▁때도	-2270
▁뚜껑	-2271
▁만다	-2272
▁말린	-2273
▁맑은	-2274
▁맛볼	-2275
▁멸치	-2276
▁모여	-2277
▁몰라	-2278
▁무거	-2279
▁문을	-2280
▁뭐가	-2281
▁바늘	-2282
▁바라	-2283
▁받고	-2284
▁벌이	-2285
▁봉선	-2286
▁비슷	-2287
▁빠르	-2288
▁사정	-2289
▁산마	-2290
▁선물	-2291
▁세척	-2292
▁수천	-2293
▁숨을	-2294
▁시켜	-2295
▁실패	-2296
▁아버	-2297
▁어제	-2298
▁얻을	-2299
▁염소	-2300
▁옆에	-2301
▁오면	-2302
▁옮겨	-2303
▁옷을	-2304
▁유목	-2305
▁의지	-2306
▁일주	-2307
▁자랑	-2308
▁잠깐	-2309
▁잡고	-2310
▁잡을	-2311
▁전문	-2312
▁죽은	-2313
▁줄어	-2314
▁찾고	-2315
▁캐는	-2316
▁크게	-2317
▁택배	-2318
▁토사	-2319
▁하얀	-2320
▁험난	-2321
▁화가	-2322
▁화산	-2323
▁황금	-2324
겠다고	-2325
듭니다	-2326
속으로	-2327
▁200	-2328
▁걸린다	-2329
▁고기가	-2330
▁고기를	-2331
▁구멍이	-2332
▁끌어올	-2333
▁나선다	-2334
▁나이가	-2335
▁내려가	-2336
▁넣는다	-2337
▁놓는다	-2338
▁느낌이	-2339
▁다르다	-2340
▁들어오	-2341
▁만들고	-2342
▁먹었다	-2343
▁모른다	-2344
▁못하는	-2345
▁무거운	-2346
▁무조건	-2347
▁뭔가를	-2348
▁바다를	-2349
▁발견한	-2350
▁베테랑	-2351
▁부분이	-2352
▁부지런	-2353
▁뿐이다	-2354
▁상황이	-2355
▁선원들	-2356
▁시간을	-2357
▁안에서	-2358
▁어떨까	-2359
▁엄청나	-2360
▁없어서	-2361
▁없었다	-2362
▁역할을	-2363
▁음식을	-2364
▁있는지	-2365
▁정성을	-2366
▁철갑상	-2367
▁태양광	-2368
▁향하는	-2369
▁힘들게	-2370
▁1000	-2371
▁게르마늄	-2372
▁남편이다	-2373
▁돌아왔다	-2374
▁떨어진다	-2375
▁이어진다	-2376
▁했습니다	-2377
▁때문입니다	-2378
▁비닐하우스	-2379
▁조금이라도	-2380
▁할아버지는	-2381
▁곡	-2382
▁극	-2383
▁깔	-2384
▁널	-2385
▁러	-2386
▁묶	-2387
▁밧	-2388
▁뱃	-2389
▁볶	-2390
▁빈	-2391
▁셈	-2392
▁줘	-2393
▁취	-2394
▁콩	-2395
▁텐	-2396
▁푹	-2397
▁훌	-2398
가가	-2399
개가	-2400
겼다	-2401
공이	-2402
그마	-2403
기름	-2404
기와	-2405
능을	-2406
도에	-2407
동물	-2408
동이	-2409
든다	-2410
든지	-2411
들로	-2412
라이	-2413
란히	-2414
만원	-2415
메드	-2416
보고	-2417
보면	-2418
부는	-2419
사가	-2420
살을	-2421
상의	-2422
수로	-2423
시로	-2424
식이	-2425
씨다	-2426
였던	-2427
운다	-2428
체는	-2429
치지	-2430
친다	-2431
판을	-2432
하던	-2433
하여	-2434
해져	-2435
해주	-2436
했을	-2437
▁14	-2438
▁25	-2439
▁가르	-2440
▁걸러	-2441
▁결과	-2442
▁결정	-2443
▁경옥	-2444
▁곳곳	-2445
▁과외	-2446
▁금방	-2447
▁꼼꼼	-2448
▁꿀을	-2449
▁끊임	-2450
▁남숙	-2451
▁내년	-2452
▁넣는	-2453
▁높아	-2454
▁누가	-2455
▁눈치	-2456
▁능이	-2457
▁다루	-2458
▁담아	-2459
▁대물	-2460
▁대접	-2461
▁덕에	-2462
▁동원	-2463
▁듣고	-2464
▁말도	-2465
▁말씀	-2466
▁먹이	-2467
▁멈추	-2468
▁메밀	-2469
▁모아	-2470
▁모하	-2471
▁목표	-2472
▁미역	-2473
▁바꿔	-2474
▁발라	-2475
▁배달	-2476
▁백봉	-2477
▁버릴	-2478
▁봐야	-2479
▁부표	-2480
▁분위	-2481
▁불이	-2482
▁뿌려	-2483
▁사업	-2484
▁사진	-2485
▁상품	-2486
▁서두	-2487
▁석청	-2488
▁소중	-2489
▁송담	-2490
▁술을	-2491
▁숭어	-2492
▁쉬지	-2493
▁시원	-2494
▁시키	-2495
▁시험	-2496
▁싸움	-2497
▁씨앗	-2498
▁아는	-2499
▁아름	-2500
▁아마	-2501
▁않을	-2502
▁약방	-2503
▁약을	-2504
▁약이	-2505
▁양의	-2506
▁여보	-2507
▁여유	-2508
▁연탄	-2509
▁오골	-2510
▁우러	-2511
▁유황	-2512
▁이정	-2513
▁인정	-2514
▁일어	-2515
▁일에	-2516
▁일찍	-2517
▁잡은	-2518
▁정아	-2519
▁제철	-2520
▁좋게	-2521
▁좋을	-2522
▁주면	-2523
▁줄이	-2524
▁집이	-2525
▁찍어	-2526
▁채워	-2527
▁챙기	-2528
▁털어	-2529
▁편안	-2530
▁펼쳐	-2531
▁평균	-2532
▁포장	-2533
▁하니	-2534
▁하시	-2535
▁한가	-2536
▁해발	-2537
▁했던	-2538
▁향해	-2539
▁허락	-2540
▁흔적	-2541
가자미	-2542
랍니다	-2543
버섯을	-2544
습니까	-2545
시키는	-2546
어준다	-2547
에게는	-2548
우니까	-2549
인가요	-2550
장이다	-2551
정이다	-2552
품이다	-2553
해졌다	-2554
▁가능한	-2555
▁걸리는	-2556
▁것들이	-2557
▁과정을	-2558
▁구멍을	-2559
▁그녀는	-2560
▁그래야	-2561
▁그물에	-2562
▁나가는	-2563
▁도라지	-2564
▁돌아온	-2565
▁들어요	-2566
▁떨어지	-2567
▁러시아	-2568
▁먹는다	-2569
▁모양이	-2570
▁무게가	-2571
▁바닥에	-2572
▁방법이	-2573
▁성격이	-2574
▁소금을	-2575
▁수작업	-2576
▁아빠가	-2577
▁않아요	-2578
▁약으로	-2579
▁약초는	-2580
▁어려운	-2581
▁없으면	-2582
▁우리의	-2583
▁위치를	-2584
▁있어도	-2585
▁자란다	-2586
▁재빨리	-2587
▁저희가	-2588
▁전화를	-2589
▁조금만	-2590
▁조금씩	-2591
▁좋아하	-2592
▁찾는다	-2593
▁챙긴다	-2594
▁커다란	-2595
▁통째로	-2596
▁하려는	-2597
▁한다는	-2598
▁했지만	-2599
▁혼자서	-2600
▁나옵니다	-2601
▁날카로운	-2602
▁노랑가오	-2603
▁느껴진다	-2604
▁동의보감	-2605
▁며느리가	-2606
▁모하메드	-2607
▁사용하는	-2608
▁사이에서	-2609
▁생각한다	-2610
▁아닙니다	-2611
▁아무것도	-2612
▁특징이다	-2613
▁규	-2614
▁균	-2615
▁꽉	-2616
▁능	-2617
▁닥	-2618
▁닫	-2619
▁닮	-2620
▁멋	-2621
▁묵	-2622
▁뻗	-2623
▁쏘	-2624
▁에	-2625
▁워	-2626
▁젖	-2627
▁좁	-2628
▁쥐	-2629
▁짧	-2630
▁쫓	-2631
▁춘	-2632
▁컴	-2633
▁탐	-2634
▁훈	-2635
▁흰	-2636
과의	-2637
구에	-2638
그릇	-2639
기의	-2640
내기	-2641
년째	-2642
는가	-2643
다랑	-2644
다른	-2645
대는	-2646
대의	-2647
더덕	-2648
두고	-2649
래도	-2650
레스	-2651
로는	-2652
로를	-2653
률이	-2654
리아	-2655
림이	-2656
만이	-2657
문에	-2658
박한	-2659
밭에	-2660
버렸	-2661
셔야	-2662
순이	-2663
스레	-2664
스타	-2665
액을	-2666
으신	-2667
이트	-2668
주가	-2669
진이	-2670
체가	-2671
콤한	-2672
토록	-2673
하러	-2674
하수	-2675
호가	-2676
▁13	-2677
▁35	-2678
▁가고	-2679
▁가래	-2680
▁갖고	-2681
▁거쳐	-2682
▁건지	-2683
▁경매	-2684
▁골라	-2685
▁그걸	-2686
▁그럴	-2687
▁근처	-2688
▁기준	-2689
▁꽃벵	-2690
▁나누	-2691
▁나뭇	-2692
▁남겨	-2693
▁녀석	-2694
▁누군	-2695
▁다섯	-2696
▁대표	-2697
▁더덕	-2698
▁독을	-2699
▁돌을	-2700
▁둘이	-2701
▁듯한	-2702
▁딸을	-2703
▁땅에	-2704
▁마디	-2705
▁막아	-2706
▁만만	-2707
▁맞는	-2708
▁매우	-2709
▁메뉴	-2710
▁모를	-2711
▁모종	-2712
▁무려	-2713
▁무사	-2714
▁물메	-2715
▁미리	-2716
▁민어	-2717
▁밑그	-2718
▁밑에	-2719
▁바윗	-2720
▁발을	-2721
▁발전	-2722
▁밭에	-2723
▁배가	-2724
▁백두	-2725
▁변화	-2726
▁별미	-2727
▁보람	-2728
▁봄철	-2729
▁봐요	-2730
▁불순	-2731
▁불안	-2732
▁비가	-2733
▁비율	-2734
▁살림	-2735
▁살이	-2736
▁살피	-2737
▁상징	-2738
▁색을	-2739
▁설탕	-2740
▁수술	-2741
▁순금	-2742
▁시골	-2743
▁시절	-2744
▁심어	-2745
▁쌓인	-2746
▁쓰고	-2747
▁아찔	-2748
▁안돼	-2749
▁안정	-2750
▁양파	-2751
▁어쩌	-2752
▁억척	-2753
▁얻기	-2754
▁얻은	-2755
▁없기	-2756
▁여자	-2757
▁예방	-2758
▁예술	-2759
▁오는	-2760
▁응급	-2761
▁이러	-2762
▁이십	-2763
▁이틀	-2764
▁인삼	-2765
▁잠을	-2766
▁재단	-2767
▁전쟁	-2768
▁접착	-2769
▁지폐	-2770
▁짙은	-2771
▁창고	-2772
▁춘란	-2773
▁출항	-2774
▁친구	-2775
▁탁월	-2776
▁파악	-2777
▁폭발	-2778
▁표면	-2779
▁해가	-2780
▁혈액	-2781
▁호박	-2782
▁호흡	-2783
▁활용	-2784
▁흙을	-2785
그마치	-2786
까지도	-2787
린다고	-2788
보다는	-2789
소리가	-2790
시간이	-2791
았어요	-2792
이지만	-2793
자들이	-2794
하다고	-2795
▁가져가	-2796
▁가족이	-2797
▁갑니다	-2798
▁건강에	-2799
▁건강한	-2800
▁게다가	-2801
▁곳에서	-2802
▁곳으로	-2803
▁공부를	-2804
▁그동안	-2805
▁기운이	-2806
▁끝나고	-2807
▁나무는	-2808
▁납니다	-2809
▁다음에	-2810
▁단단히	-2811
▁돕는다	-2812
▁되는데	-2813
▁말아야	-2814
▁말았다	-2815
▁맛있는	-2816
▁무언가	-2817
▁바다로	-2818
▁반드시	-2819
▁벌집을	-2820
▁병원에	-2821
▁사고가	-2822
▁사장님	-2823
▁산행을	-2824
▁상처가	-2825
▁셈이다	-2826
▁소리를	-2827
▁스스로	-2828
▁시간에	-2829
▁식으로	-2830
▁신선한	-2831
▁아닐까	-2832
▁아들의	-2833
▁아버님	-2834
▁아침에	-2835
▁않을까	-2836
▁오골계	-2837
▁옥수수	-2838
▁원하는	-2839
▁유목민	-2840
▁이상의	-2841
▁있나요	-2842
▁자리돔	-2843
▁잔소리	-2844
▁절벽을	-2845
▁정도다	-2846
▁정확한	-2847
▁좋겠다	-2848
▁주세요	-2849
▁준비가	-2850
▁차가꾼	-2851
▁차이가	-2852
▁키우는	-2853
▁테니까	-2854
▁편하게	-2855
▁필수다	-2856
▁하나로	-2857
▁해야지	-2858
▁형태가	-2859
▁확실히	-2860
▁효능이	-2861
▁건강하게	-2862
▁과정에서	-2863
▁끊임없이	-2864
▁남편에게	-2865
▁농사일을	-2866
▁다릅니다	-2867
▁무엇보다	-2868
▁본격적인	-2869
▁봉선씨는	-2870
▁부지런히	-2871
▁사람들의	-2872
▁사용한다	-2873
▁새벽부터	-2874
▁소나무를	-2875
▁시작하면	-2876
▁아니에요	-2877
▁올라온다	-2878
▁자그마치	-2879
▁처음에는	-2880
▁하잖아요	-2881
,2	-2882
▁겪	-2883
▁낯	-2884
▁눌	-2885
▁닦	-2886
▁뒷	-2887
▁디	-2888
▁북	-2889
▁빌	-2890
▁솔	-2891
▁싱	-2892
▁찜	-2893
▁촉	-2894
▁캔	-2895
▁팽	-2896
▁흡	-2897
같이	-2898
개를	-2899
겨울	-2900
고가	-2901
과를	-2902
구의	-2903
기지	-2904
끄럽	-2905
끼리	-2906
나가	-2907
남도	-2908
내지	-2909
대체	-2910
도라	-2911
드릴	-2912
듯이	-2913
렸던	-2914
로가	-2915
리며	-2916
망을	-2917
명이	-2918
물에	-2919
바로	-2920
비가	-2921
빛을	-2922
빛이	-2923
사람	-2924
사한	-2925
산삼	-2926
살이	-2927
스가	-2928
시키	-2929
아가	-2930
역을	-2931
오고	-2932
용이	-2933
이로	-2934
인한	-2935
입이	-2936
점을	-2937
지다	-2938
쫄깃	-2939
터넷	-2940
터를	-2941
함을	-2942
함이	-2943
해보	-2944
회가	-2945
힌다	-2946
▁가공	-2947
▁개가	-2948
▁거는	-2949
▁거지	-2950
▁건데	-2951
▁건져	-2952
▁공예	-2953
▁과거	-2954
▁관절	-2955
▁관측	-2956
▁괜히	-2957
▁굵은	-2958
▁귀농	-2959
▁그리	-2960
▁급한	-2961
▁기간	-2962
▁꼼짝	-2963
▁꿀이	-2964
▁나물	-2965
▁나이	-2966
▁났다	-2967
▁냄새	-2968
▁너희	-2969
▁노래	-2970
▁노하	-2971
▁누에	-2972
▁눌러	-2973
▁늦게	-2974
▁다가	-2975
▁당뇨	-2976
▁당시	-2977
▁대추	-2978
▁더해	-2979
▁돈을	-2980
▁돌이	-2981
▁동그	-2982
▁돼서	-2983
▁드는	-2984
▁딸기	-2985
▁뚝배	-2986
▁라면	-2987
▁마찬	-2988
▁만드	-2989
▁많고	-2990
▁말라	-2991
▁망치	-2992
▁명품	-2993
▁모래	-2994
▁목숨	-2995
▁무리	-2996
▁무섭	-2997
▁뭘까	-2998
▁받는	-2999
▁발달	-3000
▁방식	-3001
▁방울	-3002
▁배추	-3003
▁버리	-3004
▁보다	-3005
▁보석	-3006
▁부엉	-3007
▁불에	-3008
▁비법	-3009
▁빛을	-3010
▁빠른	-3011
▁빨라	-3012
▁뽑아	-3013
▁사나	-3014
▁사냥	-3015
▁사투	-3016
▁산이	-3017
▁삶은	-3018
▁삶의	-3019
▁삼십	-3020
▁새로	-3021
▁생겨	-3022
▁생일	-3023
▁석이	-3024
▁선생	-3025
▁섬세	-3026
▁소비	-3027
▁솜을	-3028
▁송이	-3029
▁수풀	-3030
▁순자	-3031
▁쉬는	-3032
▁쉬운	-3033
▁시계	-3034
▁시집	-3035
▁심지	-3036
▁쓰러	-3037
▁쓴다	-3038
▁씨와	-3039
▁안다	-3040
▁앉아	-3041
▁않기	-3042
▁알고	-3043
▁알을	-3044
▁암컷	-3045
▁앞에	-3046
▁양쪽	-3047
▁어둠	-3048
▁어른	-3049
▁어찌	-3050
▁열어	-3051
▁영남	-3052
▁오른	-3053
▁온몸	-3054
▁왜냐	-3055
▁우려	-3056
▁우선	-3057
▁운동	-3058
▁워낙	-3059
▁위협	-3060
▁이리	-3061
▁익숙	-3062
▁인해	-3063
▁일본	-3064
▁입을	-3065
▁있죠	-3066
▁있지	-3067
▁자칫	-3068
▁잔뿌	-3069
▁잡기	-3070
▁재촉	-3071
▁절로	-3072
▁종일	-3073
▁종종	-3074
▁짓고	-3075
▁찌꺼	-3076
▁찾은	-3077
▁추운	-3078
▁치열	-3079
▁캐기	-3080
▁커피	-3081
▁크다	-3082
▁하던	-3083
▁한두	-3084
▁할매	-3085
▁형님	-3086
▁홀로	-3087
▁회복	-3088
▁훌쩍	-3089
▁흔들	-3090
거에요	-3091
겠네요	-3092
넣는다	-3093
버린다	-3094
부터는	-3095
뿐이다	-3096
소리를	-3097
으세요	-3098
한테는	-3099
▁600	-3100
▁가격은	-3101
▁같아서	-3102
▁걸음을	-3103
▁고추를	-3104
▁곳이다	-3105
▁그토록	-3106
▁기운을	-3107
▁긴장을	-3108
▁꺼낸다	-3109
▁끝났다	-3110
▁나간다	-3111
▁나서야	-3112
▁나오면	-3113
▁나와서	-3114
▁넘어가	-3115
▁노력이	-3116
▁놓으면	-3117
▁눈으로	-3118
▁늑대는	-3119
▁단단한	-3120
▁당신이	-3121
▁대리석	-3122
▁데리고	-3123
▁도대체	-3124
▁도착한	-3125
▁돌아오	-3126
▁들어간	-3127
▁들어올	-3128
▁듯하다	-3129
▁똑같은	-3130
▁뚜껑을	-3131
▁마세요	-3132
▁마쳤다	-3133
▁만만치	-3134
▁많아요	-3135
▁맛있게	-3136
▁먹어도	-3137
▁무사히	-3138
▁바다가	-3139
▁바다는	-3140
▁바쁘다	-3141
▁바윗굴	-3142
▁밖으로	-3143
▁백두산	-3144
▁부드러	-3145
▁부분은	-3146
▁분명히	-3147
▁사람을	-3148
▁상태가	-3149
▁서로를	-3150
▁선장의	-3151
▁소금은	-3152
▁수시로	-3153
▁시간은	-3154
▁식사를	-3155
▁신경을	-3156
▁심상치	-3157
▁싶어요	-3158
▁아니야	-3159
▁아이들	-3160
▁아직도	-3161
▁아파서	-3162
▁않아서	-3163
▁앞두고	-3164
▁어디로	-3165
▁어디에	-3166
▁어렵게	-3167
▁어머님	-3168
▁얼굴에	-3169
▁여기가	-3170
▁온도를	-3171
▁완전히	-3172
▁위치한	-3173
▁일하고	-3174
▁일하러	-3175
▁자기가	-3176
▁자르고	-3177
▁자리에	-3178
▁자식들	-3179
▁잠시도	-3180
▁재료가	-3181
▁적하수	-3182
▁전부터	-3183
▁정도는	-3184
▁정도면	-3185
▁정체는	-3186
▁조각칼	-3187
▁지금도	-3188
▁채취를	-3189
▁채취할	-3190
▁최대한	-3191
▁큰아들	-3192
▁하나도	-3193
▁하나에	-3194
▁한마디	-3195
▁형태를	-3196
▁홍어는	-3197
났습니다	-3198
있습니다	-3199
▁고등어가	-3200
▁골쇄보를	-3201
▁기다리는	-3202
▁돌아가는	-3203
▁마찬가지	-3204
▁먹으라고	-3205
▁발걸음을	-3206
▁산양산삼	-3207
▁살아있는	-3208
▁선원들은	-3209
▁선원들이	-3210
▁아내에게	-3211
▁아들이다	-3212
▁야생동물	-3213
▁엄청나게	-3214
▁옛날부터	-3215
▁올라가는	-3216
▁완성됐다	-3217
▁이번에는	-3218
▁지금부터	-3219
▁처음으로	-3220
▁철갑상어	-3221
▁한창이다	-3222
▁할머니의	-3223
▁확인하고	-3224
▁확인한다	-3225
▁만들어진다	-3226
▁겸	-3227
▁곰	-3228
▁깜	-3229
▁꽂	-3230
▁늙	-3231
▁라	-3232
▁뿔	-3233
▁셋	-3234
▁솟	-3235
▁압	-3236
▁엎	-3237
▁왠	-3238
▁쪄	-3239
▁찼	-3240
▁촬	-3241
▁튼	-3242
▁팀	-3243
▁핀	-3244
▁흠	-3245
가에	-3246
가의	-3247
간의	-3248
거진	-3249
겁다	-3250
계가	-3251
고루	-3252
괴를	-3253
구니	-3254
국의	-3255
기다	-3256
길로	-3257
대에	-3258
되기	-3259
되면	-3260
라가	-3261
락을	-3262
란다	-3263
량을	-3264
로나	-3265
리한	-3266
마리	-3267
막을	-3268
만을	-3269
만의	-3270
목이	-3271
바다	-3272
바닥	-3273
받고	-3274
봐도	-3275
북도	-3276
분은	-3277
비는	-3278
세를	-3279
순환	-3280
실에	-3281
아몬	-3282
야지	-3283
어주	-3284
어질	-3285
어탕	-3286
없는	-3287
었어	-3288
여서	-3289
연히	-3290
온이	-3291
와는	-3292
와의	-3293
우면	-3294
워야	-3295
이의	-3296
장의	-3297
재를	-3298
져야	-3299
집에	-3300
집이	-3301
차가	-3302
쳐서	-3303
초를	-3304
판이	-3305
하죠	-3306
해지	-3307
형이	-3308
화가	-3309
▁19	-3310
▁70	-3311
▁가끔	-3312
▁가방	-3313
▁가슴	-3314
▁간격	-3315
▁갈치	-3316
▁갖다	-3317
▁거기	-3318
▁건너	-3319
▁걸리	-3320
▁경제	-3321
▁고마	-3322
▁고사	-3323
▁공격	-3324
▁공정	-3325
▁과감	-3326
▁관건	-3327
▁구매	-3328
▁그림	-3329
▁금을	-3330
▁기울	-3331
▁김을	-3332
▁김이	-3333
▁껍데	-3334
▁끌고	-3335
▁나고	-3336
▁나지	-3337
▁내내	-3338
▁내리	-3339
▁노란	-3340
▁놀라	-3341
▁높다	-3342
▁눈을	-3343
▁늦은	-3344
▁다듬	-3345
▁달궈	-3346
▁담가	-3347
▁담겨	-3348
▁당황	-3349
▁닿지	-3350
▁대략	-3351
▁도망	-3352
▁도자	-3353
▁도전	-3354
▁독도	-3355
▁독활	-3356
▁동혁	-3357
▁된장	-3358
▁두꺼	-3359
▁두릅	-3360
▁드릴	-3361
▁딸의	-3362
▁떠나	-3363
▁뛰어	-3364
▁마른	-3365
▁만난	-3366
▁만날	-3367
▁말려	-3368
▁망가	-3369
▁맞아	-3370
▁매년	-3371
▁매출	-3372
▁먼지	-3373
▁모자	-3374
▁몰려	-3375
▁몰아	-3376
▁무너	-3377
▁묻어	-3378
▁묻혀	-3379
▁밀려	-3380
▁바지	-3381
▁바짝	-3382
▁바퀴	-3383
▁박혀	-3384
▁반대	-3385
▁받은	-3386
▁발이	-3387
▁밤새	-3388
▁밤이	-3389
▁밥상	-3390
▁밭을	-3391
▁배로	-3392
▁배에	-3393
▁배운	-3394
▁백합	-3395
▁번거	-3396
▁번씩	-3397
▁번에	-3398
▁벗겨	-3399
▁변신	-3400
▁보충	-3401
▁분류	-3402
▁붙은	-3403
▁블루	-3404
▁빠질	-3405
▁빨갛	-3406
▁사슴	-3407
▁사십	-3408
▁사육	-3409
▁산란	-3410
▁삶아	-3411
▁색이	-3412
▁선박	-3413
▁세상	-3414
▁수분	-3415
▁수월	-3416
▁수제	-3417
▁숯을	-3418
▁스트	-3419
▁시베	-3420
▁싣고	-3421
▁실을	-3422
▁싱싱	-3423
▁쌓여	-3424
▁애타	-3425
▁약간	-3426
▁양을	-3427
▁어두	-3428
▁어딘	-3429
▁어때	-3430
▁어떡	-3431
▁없애	-3432
▁엿을	-3433
▁영자	-3434
▁예상	-3435
▁오를	-3436
▁오염	-3437
▁오이	-3438
▁완전	-3439
▁왕실	-3440
▁요새	-3441
▁우랑	-3442
▁원기	-3443
▁원목	-3444
▁위를	-3445
▁이래	-3446
▁익어	-3447
▁인내	-3448
▁일만	-3449
▁임금	-3450
▁잎이	-3451
▁자개	-3452
▁자동	-3453
▁자생	-3454
▁자유	-3455
▁장을	-3456
▁정치	-3457
▁주민	-3458
▁주지	-3459
▁즉석	-3460
▁지어	-3461
▁직업	-3462
▁차려	-3463
▁참외	-3464
▁참치	-3465
▁첫째	-3466
▁체험	-3467
▁촬영	-3468
▁충분	-3469
▁카메	-3470
▁칼을	-3471
▁컴퓨	-3472
▁크고	-3473
▁태풍	-3474
▁통해	-3475
▁튼튼	-3476
▁틀을	-3477
▁팔아	-3478
▁푸른	-3479
▁풀어	-3480
▁피부	-3481
▁하며	-3482
▁학교	-3483
▁한데	-3484
▁할까	-3485
▁항암	-3486
▁해주	-3487
▁행여	-3488
▁현재	-3489
▁화장	-3490
▁화학	-3491
▁활동	-3492
▁힘드	-3493
겠는가	-3494
겠는데	-3495
나무가	-3496
나무에	-3497
나무의	-3498
느라고	-3499
는다고	-3500
사이에	-3501
시켜야	-3502
씨이다	-3503
어났다	-3504
었으면	-3505
었을까	-3506
을수록	-3507
적이다	-3508
해줘야	-3509
훈씨는	-3510
▁가까운	-3511
▁가을에	-3512
▁가지를	-3513
▁강인한	-3514
▁경우는	-3515
▁고생을	-3516
▁골고루	-3517
▁그것을	-3518
▁그들의	-3519
▁그들이	-3520
▁그러는	-3521
▁끝까지	-3522
▁나와요	-3523
▁날이다	-3524
▁남았다	-3525
▁남편도	-3526
▁내일은	-3527
▁넣어야	-3528
▁넣으면	-3529
▁농장에	-3530
▁누군가	-3531
▁다르게	-3532
▁다리가	-3533
▁대장간	-3534
▁돌아다	-3535
▁동시에	-3536
▁든든한	-3537
▁들어온	-3538
▁들어왔	-3539
▁들었다	-3540
▁따뜻한	-3541
▁떼어내	-3542
▁마리가	-3543
▁마리의	-3544
▁만나는	-3545
▁만났다	-3546
▁많아서	-3547
▁먹이를	-3548
▁무엇이	-3549
▁물고기	-3550
▁미안해	-3551
▁바구니	-3552
▁바늘이	-3553
▁바쁜데	-3554
▁반가운	-3555
▁붙이는	-3556
▁사이로	-3557
▁살핀다	-3558
▁상당히	-3559
▁새벽에	-3560
▁생각해	-3561
▁선물을	-3562
▁성분을	-3563
▁수분이	-3564
▁실제로	-3565
▁심지어	-3566
▁싶어서	-3567
▁아닌데	-3568
▁앉아서	-3569
▁얘기를	-3570
▁어렵다	-3571
▁없으니	-3572
▁옆에서	-3573
▁예민한	-3574
▁오른다	-3575
▁우거진	-3576
▁움직여	-3577
▁움직일	-3578
▁위해선	-3579
▁유리를	-3580
▁이대로	-3581
▁이름이	-3582
▁인터넷	-3583
▁일주일	-3584
▁자신을	-3585
▁자신이	-3586
▁자연이	-3587
▁잡히지	-3588
▁장인의	-3589
▁정도의	-3590
▁주머니	-3591
▁줄기에	-3592
▁지키는	-3593
▁진액이	-3594
▁차례다	-3595
▁찾아야	-3596
▁처음에	-3597
▁최상급	-3598
▁코로나	-3599
▁하나다	-3600
▁하나만	-3601
▁하루가	-3602
▁험난한	-3603
▁혹시나	-3604
▁확률이	-3605
▁확인할	-3606
만큼이나	-3607
▁가마솥에	-3608
▁과정이다	-3609
▁그렇다고	-3610
▁기다리고	-3611
▁다이아몬	-3612
▁돌아간다	-3613
▁드러낸다	-3614
▁들어가서	-3615
▁마음으로	-3616
▁멧돼지가	-3617
▁발걸음이	-3618
▁부모님이	-3619
▁사람들을	-3620
▁사정없이	-3621
▁상황버섯	-3622
▁손님들이	-3623
▁송근봉이	-3624
▁시베리아	-3625
▁시작된다	-3626
▁아무래도	-3627
▁안전하게	-3628
▁없으니까	-3629
▁없잖아요	-3630
▁예정이다	-3631
▁옛날에는	-3632
▁왔습니다	-3633
▁왜냐하면	-3634
▁위해서다	-3635
▁있잖아요	-3636
▁자리에서	-3637
▁작업하는	-3638
▁준비하는	-3639
▁준비한다	-3640
▁하나라도	-3641
▁할머니가	-3642
▁항아리가	-3643
▁혈액순환	-3644
▁사람들에게	-3645
▁작업입니다	-3646
▁할아버지가	-3647
19	-3648
~3	-3649
▁끈	-3650
▁뇌	-3651
▁땄	-3652
▁땜	-3653
▁띠	-3654
▁롤	-3655
▁리	-3656
▁맺	-3657
▁붕	-3658
▁빵	-3659
▁센	-3660
▁솥	-3661
▁숫	-3662
▁썼	-3663
▁웬	-3664
▁잇	-3665
▁존	-3666
▁죄	-3667
▁줬	-3668
▁짠	-3669
▁찢	-3670
▁탓	-3671
▁흉	-3672
감을	-3673
같은	-3674
거리	-3675
겁게	-3676
겠네	-3677
경이	-3678
고의	-3679
구나	-3680
구는	-3681
귀한	-3682
그러	-3683
근을	-3684
긋한	-3685
기고	-3686
기자	-3687
남매	-3688
늦게	-3689
닌다	-3690
다운	-3691
단이	-3692
당한	-3693
대째	-3694
덩굴	-3695
드리	-3696
들고	-3697
뜨릴	-3698
라미	-3699
력에	-3700
렸을	-3701
로서	-3702
로소	-3703
료가	-3704
르신	-3705
름을	-3706
마땅	-3707
많은	-3708
문을	-3709
물로	-3710
물의	-3711
번에	-3712
벌레	-3713
벌은	-3714
분백	-3715
분의	-3716
비에	-3717
사에	-3718
사의	-3719
새우	-3720
색이	-3721
서운	-3722
선은	-3723
손이	-3724
시기	-3725
시킨	-3726
쓰고	-3727
씨도	-3728
안을	-3729
액이	-3730
얗게	-3731
어낸	-3732
업의	-3733
에만	-3734
염소	-3735
영식	-3736
워도	-3737
원을	-3738
월에	-3739
웠던	-3740
위를	-3741
이랑	-3742
인을	-3743
인트	-3744
자에	-3745
자인	-3746
전에	-3747
종일	-3748
주의	-3749
줄이	-3750
지의	-3751
질까	-3752
차게	-3753
초가	-3754
탄생	-3755
태를	-3756
터에	-3757
하자	-3758
향을	-3759
혔다	-3760
형의	-3761
회복	-3762
히려	-3763
히면	-3764
▁가기	-3765
▁가리	-3766
▁각종	-3767
▁갈색	-3768
▁감각	-3769
▁감자	-3770
▁거짓	-3771
▁거치	-3772
▁건축	-3773
▁것과	-3774
▁것에	-3775
▁경상	-3776
▁고급	-3777
▁고무	-3778
▁고스	-3779
▁고온	-3780
▁고장	-3781
▁곱게	-3782
▁곳을	-3783
▁공사	-3784
▁광부	-3785
▁광택	-3786
▁구리	-3787
▁굳이	-3788
▁굽는	-3789
▁그곳	-3790
▁그늘	-3791
▁그저	-3792
▁그중	-3793
▁금세	-3794
▁금이	-3795
▁기분	-3796
▁깊이	-3797
▁까치	-3798
▁깎아	-3799
▁나갔	-3800
▁나기	-3801
▁나머	-3802
▁나선	-3803
▁낚싯	-3804
▁남의	-3805
▁내일	-3806
▁내장	-3807
▁냉동	-3808
▁너는	-3809
▁넓은	-3810
▁노동	-3811
▁농축	-3812
▁놓는	-3813
▁누나	-3814
▁능숙	-3815
▁다름	-3816
▁닭을	-3817
▁대단	-3818
▁대답	-3819
▁대비	-3820
▁대해	-3821
▁덩어	-3822
▁데는	-3823
▁독초	-3824
▁돌려	-3825
▁두세	-3826
▁뒤집	-3827
▁등을	-3828
▁딱딱	-3829
▁땀을	-3830
▁때를	-3831
▁때면	-3832
▁롤러	-3833
▁막대	-3834
▁막을	-3835
▁만져	-3836
▁만족	-3837
▁말릴	-3838
▁말은	-3839
▁명약	-3840
▁모녀	-3841
▁목청	-3842
▁몰랐	-3843
▁몸의	-3844
▁몸통	-3845
▁문어	-3846
▁미끼	-3847
▁미나	-3848
▁밀어	-3849
▁바깥	-3850
▁바뀌	-3851
▁반면	-3852
▁밥솥	-3853
▁밥이	-3854
▁버려	-3855
▁번식	-3856
▁벌목	-3857
▁벌어	-3858
▁보낼	-3859
▁보살	-3860
▁보약	-3861
▁보어	-3862
▁볶아	-3863
▁부산	-3864
▁부서	-3865
▁분이	-3866
▁불가	-3867
▁불러	-3868
▁불로	-3869
▁불어	-3870
▁비벼	-3871
▁빌려	-3872
▁빗살	-3873
▁빛이	-3874
▁빨래	-3875
▁사다	-3876
▁사포	-3877
▁산소	-3878
▁산속	-3879
▁산청	-3880
▁서비	-3881
▁서식	-3882
▁서양	-3883
▁섞어	-3884
▁선택	-3885
▁소식	-3886
▁속은	-3887
▁손자	-3888
▁수박	-3889
▁슬슬	-3890
▁승호	-3891
▁식구	-3892
▁식용	-3893
▁신랑	-3894
▁실어	-3895
▁심각	-3896
▁심은	-3897
▁싸우	-3898
▁쌓아	-3899
▁써서	-3900
▁써야	-3901
▁쓰일	-3902
▁씻어	-3903
▁아예	-3904
▁아카	-3905
▁안쓰	-3906
▁알았	-3907
▁암벽	-3908
▁애가	-3909
▁약속	-3910
▁약효	-3911
▁얇은	-3912
▁어쩐	-3913
▁어획	-3914
▁얼음	-3915
▁없죠	-3916
▁엉켜	-3917
▁에어	-3918
▁연수	-3919
▁열을	-3920
▁염색	-3921
▁염전	-3922
▁영지	-3923
▁영하	-3924
▁완벽	-3925
▁왠지	-3926
▁욕심	-3927
▁용접	-3928
▁우일	-3929
▁유난	-3930
▁유유	-3931
▁의해	-3932
▁이뤄	-3933
▁이불	-3934
▁인간	-3935
▁인공	-3936
▁잊고	-3937
▁잎을	-3938
▁잘하	-3939
▁장갑	-3940
▁재미	-3941
▁재훈	-3942
▁전기	-3943
▁전설	-3944
▁전체	-3945
▁전파	-3946
▁정교	-3947
▁정순	-3948
▁제법	-3949
▁조건	-3950
▁조리	-3951
▁주낙	-3952
▁주무	-3953
▁줄은	-3954
▁중국	-3955
▁지가	-3956
▁지게	-3957
▁지역	-3958
▁진주	-3959
▁짐을	-3960
▁쫄깃	-3961
▁차지	-3962
▁찾을	-3963
▁채집	-3964
▁천문	-3965
▁철광	-3966
▁초보	-3967
▁최대	-3968
▁최소	-3969
▁최적	-3970
▁추억	-3971
▁충격	-3972
▁치매	-3973
▁치명	-3974
▁캐낸	-3975
▁커서	-3976
▁키운	-3977
▁터전	-3978
▁톱날	-3979
▁통에	-3980
▁트랙	-3981
▁트럭	-3982
▁특수	-3983
▁포착	-3984
▁포획	-3985
▁표시	-3986
▁품고	-3987
▁피곤	-3988
▁피로	-3989
▁한결	-3990
▁한눈	-3991
▁해소	-3992
▁했어	-3993
▁했을	-3994
겠지만	-3995
기까지	-3996
깁니다	-3997
놓는다	-3998
다랑어	-3999
달라고	-4000
들었다	-4001
때문에	-4002
라이팬	-4003
보라고	-4004
보려고	-4005
보세요	-4006
산에서	-4007
상으로	-4008
스럽다	-4009
시니까	-4010
시킨다	-4011
십니다	-4012
었는지	-4013
었지만	-4014
워진다	-4015
월까지	-4016
으로서	-4017
으면서	-4018
이라면	-4019
작업을	-4020
졌어요	-4021
지면서	-4022
하기가	-4023
하기로	-4024
하느라	-4025
한다는	-4026
▁가게를	-4027
▁가세요	-4028
▁가운데	-4029
▁가져온	-4030
▁가족은	-4031
▁가지가	-4032
▁가치를	-4033
▁같은데	-4034
▁건가요	-4035
▁건강을	-4036
▁것인데	-4037
▁것처럼	-4038
▁경기도	-4039
▁경력의	-4040
▁경우가	-4041
▁계분백	-4042
▁고기는	-4043
▁고소한	-4044
▁곳곳에	-4045
▁귀하게	-4046
▁그것이	-4047
▁그러고	-4048
▁그러다	-4049
▁그릇을	-4050
▁기계로	-4051
▁기계를	-4052
▁기다려	-4053
▁기다리	-4054
▁기름이	-4055
▁깨끗이	-4056
▁깨끗한	-4057
▁꼼꼼히	-4058
▁꽃벵이	-4059
▁날씨에	-4060
▁내년에	-4061
▁넘었다	-4062
▁넣었다	-4063
▁노하우	-4064
▁농사는	-4065
▁늑대를	-4066
▁다녀요	-4067
▁다니는	-4068
▁달콤한	-4069
▁당신은	-4070
▁독성을	-4071
▁동생이	-4072
▁됐어요	-4073
▁두께가	-4074
▁딸에게	-4075
▁땅속에	-4076
▁때보다	-4077
▁때부터	-4078
▁떨어져	-4079
▁마치고	-4080
▁말려야	-4081
▁말리는	-4082
▁매달려	-4083
▁매서운	-4084
▁먹어요	-4085
▁먼지가	-4086
▁메뉴는	-4087
▁모처럼	-4088
▁목숨을	-4089
▁못마땅	-4090
▁무서운	-4091
▁물건을	-4092
▁뭐든지	-4093
▁밑으로	-4094
▁바쁘게	-4095
▁박영식	-4096
▁밥그릇	-4097
▁방법은	-4098
▁방법을	-4099
▁방향을	-4100
▁밭에서	-4101
▁버린다	-4102
▁버섯이	-4103
▁복령이	-4104
▁복잡한	-4105
▁부분을	-4106
▁부위가	-4107
▁붙어있	-4108
▁비로소	-4109
▁비슷한	-4110
▁빠져나	-4111
▁사위가	-4112
▁산길을	-4113
▁살아있	-4114
▁색깔이	-4115
▁생각하	-4116
▁생긴다	-4117
▁손가락	-4118
▁손자가	-4119
▁쇳물이	-4120
▁수많은	-4121
▁수확을	-4122
▁수확한	-4123
▁실수로	-4124
▁아내와	-4125
▁아빠는	-4126
▁아이가	-4127
▁아찔한	-4128
▁아파요	-4129
▁어딘가	-4130
▁없다고	-4131
▁옛날에	-4132
▁오래된	-4133
▁오히려	-4134
▁온도는	-4135
▁올라와	-4136
▁올리는	-4137
▁옮기는	-4138
▁요즘은	-4139
▁움직임	-4140
▁위험천	-4141
▁유명한	-4142
▁윤기가	-4143
▁이것을	-4144
▁이어온	-4145
▁인생을	-4146
▁입니다	-4147
▁있었던	-4148
▁자꾸만	-4149
▁자연의	-4150
▁작업실	-4151
▁작업할	-4152
▁작품이	-4153
▁장어는	-4154
▁재료로	-4155
▁재탄생	-4156
▁전복을	-4157
▁전에는	-4158
▁정성이	-4159
▁정체를	-4160
▁조업을	-4161
▁주변에	-4162
▁준비에	-4163
▁지나고	-4164
▁진액을	-4165
▁찬바람	-4166
▁참이다	-4167
▁찾았다	-4168
▁추운데	-4169
▁치우고	-4170
▁카메라	-4171
▁크기에	-4172
▁크기의	-4173
▁키우고	-4174
▁탁월한	-4175
▁태어나	-4176
▁태어난	-4177
▁풍부한	-4178
▁하세요	-4179
▁할까요	-4180
▁항아리	-4181
▁해주는	-4182
▁허리가	-4183
▁홍어가	-4184
▁홍어를	-4185
▁활동을	-4186
▁효능을	-4187
▁흑도라	-4188
▁흑염소	-4189
▁힘들고	-4190
됐습니다	-4191
킬로그램	-4192
하자마자	-4193
▁2010	-4194
▁같은데요	-4195
▁경우에는	-4196
▁계속된다	-4197
▁고등어는	-4198
▁고스란히	-4199
▁곳에서는	-4200
▁곳입니다	-4201
▁관건이다	-4202
▁군락지가	-4203
▁깨끗하게	-4204
▁나뭇가지	-4205
▁도라지가	-4206
▁드러냈다	-4207
▁들어오는	-4208
▁들어오면	-4209
▁들어왔다	-4210
▁만들어서	-4211
▁반복되는	-4212
▁방향으로	-4213
▁버섯이다	-4214
▁보입니다	-4215
▁살펴본다	-4216
▁생각하는	-4217
▁서두른다	-4218
▁소나무가	-4219
▁소나무의	-4220
▁송근봉을	-4221
▁송이버섯	-4222
▁아버지를	-4223
▁아버지와	-4224
▁아카시아	-4225
▁애들한테	-4226
▁엄마에게	-4227
▁오랜만에	-4228
▁오자마자	-4229
▁완성되는	-4230
▁이번에도	-4231
▁적하수오	-4232
▁조심스레	-4233
▁좋겠어요	-4234
▁즉석에서	-4235
▁하나하나	-4236
▁하셨어요	-4237
▁항아리를	-4238
▁항아리에	-4239
▁확인해야	-4240
▁겨우살이가	-4241
▁김대립씨가	-4242
▁끝나자마자	-4243
▁만들어내는	-4244
▁만들어지는	-4245
▁무엇일까요	-4246
▁수작업으로	-4247
▁있으니까요	-4248
▁차가버섯은	-4249
▁차가버섯이	-4250
▁할머니들이	-4251
~4	-4252
▁깃	-4253
▁낭	-4254
▁놨	-4255
▁댄	-4256
▁뗄	-4257
▁뜰	-4258
▁띈	-4259
▁로	-4260
▁맴	-4261
▁맹	-4262
▁몫	-4263
▁묘	-4264
▁뭉	-4265
▁뽐	-4266
▁숟	-4267
▁슈	-4268
▁쌍	-4269
▁쐬	-4270
▁엮	-4271
▁웅	-4272
▁윗	-4273
▁읍	-4274
▁족	-4275
▁쪼	-4276
▁찻	-4277
▁층	-4278
▁캤	-4279
▁켜	-4280
▁켠	-4281
▁클	-4282
▁톤	-4283
▁핵	-4284
▁헌	-4285
▁횟	-4286
갈치	-4287
겠죠	-4288
격한	-4289
경에	-4290
곡차	-4291
공예	-4292
광로	-4293
구로	-4294
구마	-4295
구멍	-4296
구석	-4297
구이	-4298
국에	-4299
국이	-4300
길은	-4301
꾸는	-4302
끼고	-4303
나마	-4304
내에	-4305
너마	-4306
넝쿨	-4307
둔다	-4308
등을	-4309
란한	-4310
력과	-4311
료로	-4312
뤄야	-4313
르기	-4314
르지	-4315
마을	-4316
마저	-4317
마토	-4318
막은	-4319
맣게	-4320
먹고	-4321
명의	-4322
문이	-4323
물인	-4324
미를	-4325
민이	-4326
받은	-4327
발을	-4328
방이	-4329
볕에	-4330
보기	-4331
부를	-4332
비도	-4333
비와	-4334
산에	-4335
산은	-4336
생활	-4337
선이	-4338
성도	-4339
성의	-4340
세가	-4341
수는	-4342
순히	-4343
슬아	-4344
시가	-4345
식품	-4346
신을	-4347
실은	-4348
심한	-4349
액은	-4350
왔던	-4351
우기	-4352
우러	-4353
워진	-4354
원도	-4355
원에	-4356
원의	-4357
유리	-4358
으려	-4359
이며	-4360
이죠	-4361
장어	-4362
재로	-4363
재정	-4364
저리	-4365
전의	-4366
전한	-4367
정은	-4368
제가	-4369
제를	-4370
져도	-4371
주지	-4372
즙이	-4373
쪽을	-4374
추고	-4375
쾌한	-4376
크를	-4377
크릴	-4378
터가	-4379
특한	-4380
판에	-4381
하신	-4382
해를	-4383
혀야	-4384
호중	-4385
히고	-4386
▁24	-4387
▁가늠	-4388
▁가다	-4389
▁가도	-4390
▁가로	-4391
▁가볍	-4392
▁가자	-4393
▁간식	-4394
▁갈게	-4395
▁갑작	-4396
▁갖춰	-4397
▁거세	-4398
▁거센	-4399
▁건물	-4400
▁걸로	-4401
▁걸음	-4402
▁걸쳐	-4403
▁겉모	-4404
▁결실	-4405
▁계곡	-4406
▁계절	-4407
▁계획	-4408
▁곰취	-4409
▁공기	-4410
▁교육	-4411
▁구이	-4412
▁군대	-4413
▁규모	-4414
▁그다	-4415
▁그려	-4416
▁기관	-4417
▁기법	-4418
▁기생	-4419
▁기온	-4420
▁길도	-4421
▁길러	-4422
▁김무	-4423
▁김영	-4424
▁까다	-4425
▁꽃을	-4426
▁끝난	-4427
▁나눠	-4428
▁나라	-4429
▁나쁜	-4430
▁나아	-4431
▁낙엽	-4432
▁낙지	-4433
▁날아	-4434
▁낳고	-4435
▁내린	-4436
▁내서	-4437
▁냉장	-4438
▁너도	-4439
▁넘은	-4440
▁노리	-4441
▁녹아	-4442
▁녹여	-4443
▁농가	-4444
▁높이	-4445
▁놓지	-4446
▁누워	-4447
▁단백	-4448
▁단짝	-4449
▁달걀	-4450
▁달래	-4451
▁담그	-4452
▁담당	-4453
▁당겨	-4454
▁대구	-4455
▁더운	-4456
▁데가	-4457
▁도맡	-4458
▁돼야	-4459
▁되게	-4460
▁드문	-4461
▁들여	-4462
▁들이	-4463
▁따고	-4464
▁따러	-4465
▁딸과	-4466
▁띄는	-4467
▁마누	-4468
▁마주	-4469
▁만약	-4470
▁많지	-4471
▁말굽	-4472
▁말끔	-4473
▁말로	-4474
▁말순	-4475
▁말에	-4476
▁맛도	-4477
▁망태	-4478
▁맞지	-4479
▁머금	-4480
▁먹여	-4481
▁먹은	-4482
▁먹지	-4483
▁명절	-4484
▁명희	-4485
▁몸도	-4486
▁못했	-4487
▁무릎	-4488
▁무시	-4489
▁물결	-4490
▁물레	-4491
▁물려	-4492
▁미용	-4493
▁미터	-4494
▁민감	-4495
▁바느	-4496
▁반갑	-4497
▁받지	-4498
▁밧줄	-4499
▁방범	-4500
▁방탄	-4501
▁번도	-4502
▁번의	-4503
▁벌의	-4504
▁벼루	-4505
▁벽을	-4506
▁보러	-4507
▁보존	-4508
▁복신	-4509
▁봄에	-4510
▁봄이	-4511
▁부는	-4512
▁부어	-4513
▁부처	-4514
▁비교	-4515
▁비싸	-4516
▁비싼	-4517
▁빛깔	-4518
▁빨려	-4519
▁뻔한	-4520
▁뼈를	-4521
▁사방	-4522
▁산천	-4523
▁살게	-4524
▁살았	-4525
▁삼을	-4526
▁생겼	-4527
▁서툴	-4528
▁서해	-4529
▁선명	-4530
▁섬유	-4531
▁성장	-4532
▁세워	-4533
▁셋째	-4534
▁소가	-4535
▁소주	-4536
▁손끝	-4537
▁손놀	-4538
▁손도	-4539
▁송진	-4540
▁수백	-4541
▁수석	-4542
▁숨겨	-4543
▁쉬어	-4544
▁신기	-4545
▁실험	-4546
▁싫어	-4547
▁싶어	-4548
▁싶지	-4549
▁썩은	-4550
▁쓰면	-4551
▁쓰여	-4552
▁아궁	-4553
▁아삭	-4554
▁안고	-4555
▁알이	-4556
▁앞서	-4557
▁액체	-4558
▁양념	-4559
▁양자	-4560
▁어떠	-4561
▁어미	-4562
▁어색	-4563
▁어육	-4564
▁어쩔	-4565
▁얼어	-4566
▁업무	-4567
▁여왕	-4568
▁역사	-4569
▁연마	-4570
▁열흘	-4571
▁영원	-4572
▁영현	-4573
▁영화	-4574
▁오동	-4575
▁오백	-4576
▁오십	-4577
▁오지	-4578
▁오직	-4579
▁외출	-4580
▁욕조	-4581
▁용해	-4582
▁우수	-4583
▁우주	-4584
▁울타	-4585
▁원석	-4586
▁위조	-4587
▁위태	-4588
▁유일	-4589
▁유통	-4590
▁은을	-4591
▁이내	-4592
▁이를	-4593
▁익은	-4594
▁인근	-4595
▁일꾼	-4596
▁일명	-4597
▁일한	-4598
▁입맛	-4599
▁입항	-4600
▁있나	-4601
▁자네	-4602
▁자랐	-4603
▁자루	-4604
▁작동	-4605
▁잡힌	-4606
▁잣을	-4607
▁장소	-4608
▁장승	-4609
▁장에	-4610
▁장점	-4611
▁저거	-4612
▁저것	-4613
▁저물	-4614
▁적도	-4615
▁전라	-4616
▁전해	-4617
▁점님	-4618
▁젓갈	-4619
▁정석	-4620
▁조개	-4621
▁조립	-4622
▁조용	-4623
▁존재	-4624
▁주걱	-4625
▁주기	-4626
▁주물	-4627
▁주의	-4628
▁주입	-4629
▁죽방	-4630
▁죽을	-4631
▁줄기	-4632
▁줄로	-4633
▁중턱	-4634
▁줘도	-4635
▁지방	-4636
▁진한	-4637
▁짧은	-4638
▁쪽에	-4639
▁찜통	-4640
▁차고	-4641
▁차량	-4642
▁착용	-4643
▁참문	-4644
▁찼다	-4645
▁채로	-4646
▁척척	-4647
▁천공	-4648
▁청태	-4649
▁체크	-4650
▁칡은	-4651
▁카펫	-4652
▁칼슘	-4653
▁캐지	-4654
▁타기	-4655
▁타는	-4656
▁태평	-4657
▁텐데	-4658
▁톱밥	-4659
▁통화	-4660
▁특성	-4661
▁틀에	-4662
▁파도	-4663
▁파란	-4664
▁표현	-4665
▁하역	-4666
▁하자	-4667
▁학생	-4668
▁한꺼	-4669
▁한방	-4670
▁해산	-4671
▁해석	-4672
▁행동	-4673
▁향한	-4674
▁허용	-4675
▁형편	-4676
▁화를	-4677
▁흘러	-4678
▁힘겹	-4679
가지를	-4680
곡차곡	-4681
기에도	-4682
년이다	-4683
당하다	-4684
더덕을	-4685
뚜라미	-4686
라고도	-4687
력으로	-4688
머니다	-4689
물이다	-4690
셨는데	-4691
슬아슬	-4692
시간을	-4693
어버린	-4694
어졌다	-4695
에게도	-4696
으려고	-4697
으려면	-4698
으로는	-4699
일까요	-4700
좋아요	-4701
주머니	-4702
하니까	-4703
하다가	-4704
하다는	-4705
해본다	-4706
해에서	-4707
해주는	-4708
해지고	-4709
했는데	-4710
했지만	-4711
▁1,2	-4712
▁120	-4713
▁3~4	-4714
▁가득한	-4715
▁가루가	-4716
▁가시는	-4717
▁가족의	-4718
▁갈수록	-4719
▁감태가	-4720
▁갯벌에	-4721
▁거기에	-4722
▁거리에	-4723
▁거짓말	-4724
▁건조한	-4725
▁걸까요	-4726
▁겨울에	-4727
▁겨울을	-4728
▁겨울철	-4729
▁경험을	-4730
▁계시는	-4731
▁고구마	-4732
▁고맙고	-4733
▁고민이	-4734
▁고생한	-4735
▁곧바로	-4736
▁과정은	-4737
▁국물이	-4738
▁그것도	-4739
▁그렇고	-4740
▁그렇지	-4741
▁그물로	-4742
▁기계에	-4743
▁기다린	-4744
▁기름은	-4745
▁길이다	-4746
▁김호중	-4747
▁꼬리에	-4748
▁나니까	-4749
▁나무와	-4750
▁나서는	-4751
▁나오고	-4752
▁나오기	-4753
▁나왔다	-4754
▁날씨가	-4755
▁날이면	-4756
▁남편과	-4757
▁내린다	-4758
▁넘는다	-4759
▁넣어서	-4760
▁놀라운	-4761
▁농사에	-4762
▁누구도	-4763
▁늘어나	-4764
▁다녀야	-4765
▁다음날	-4766
▁달라고	-4767
▁담는다	-4768
▁담쟁이	-4769
▁답답한	-4770
▁대접을	-4771
▁대한민	-4772
▁도와줄	-4773
▁돈으로	-4774
▁동그란	-4775
▁된다면	-4776
▁두꺼운	-4777
▁두드려	-4778
▁둘러싸	-4779
▁드리고	-4780
▁드세요	-4781
▁들기름	-4782
▁들어갔	-4783
▁들어와	-4784
▁따라가	-4785
▁따지면	-4786
▁땅에서	-4787
▁때에는	-4788
▁떠난다	-4789
▁뛰어나	-4790
▁말리면	-4791
▁말한다	-4792
▁매끄럽	-4793
▁머리를	-4794
▁모르고	-4795
▁무겁다	-4796
▁무게를	-4797
▁무늬가	-4798
▁무섭게	-4799
▁문재정	-4800
▁물건이	-4801
▁물속에	-4802
▁미안한	-4803
▁밀가루	-4804
▁바다의	-4805
▁바닥을	-4806
▁바라는	-4807
▁바위를	-4808
▁발라야	-4809
▁버리지	-4810
▁버섯을	-4811
▁벌집이	-4812
▁범상치	-4813
▁보시면	-4814
▁보여요	-4815
▁복령은	-4816
▁본인이	-4817
▁부르는	-4818
▁부모의	-4819
▁부엉이	-4820
▁부품이	-4821
▁불량이	-4822
▁불편한	-4823
▁빠르게	-4824
▁빨갛게	-4825
▁사고로	-4826
▁사진을	-4827
▁살아야	-4828
▁살았다	-4829
▁삽주를	-4830
▁상자를	-4831
▁상처를	-4832
▁상태는	-4833
▁상태다	-4834
▁생기면	-4835
▁성질이	-4836
▁세상에	-4837
▁세월을	-4838
▁세월이	-4839
▁속도로	-4840
▁손길이	-4841
▁손님들	-4842
▁솜씨를	-4843
▁쇳물을	-4844
▁수술을	-4845
▁수확이	-4846
▁순간을	-4847
▁순간이	-4848
▁숟가락	-4849
▁숭어는	-4850
▁시간도	-4851
▁시기가	-4852
▁시험을	-4853
▁싫어서	-4854
▁싱싱한	-4855
▁싹대가	-4856
▁쓰인다	-4857
▁씻어서	-4858
▁아내다	-4859
▁아들과	-4860
▁아래에	-4861
▁아무도	-4862
▁아직은	-4863
▁아크릴	-4864
▁아프다	-4865
▁안돼서	-4866
▁알기에	-4867
▁알려진	-4868
▁알아서	-4869
▁애들이	-4870
▁애벌레	-4871
▁애타게	-4872
▁액체를	-4873
▁약초의	-4874
▁어때요	-4875
▁어르신	-4876
▁엄마도	-4877
▁여름철	-4878
▁연구가	-4879
▁열기를	-4880
▁열매를	-4881
▁오르는	-4882
▁온몸을	-4883
▁올라오	-4884
▁옮긴다	-4885
▁요리에	-4886
▁용광로	-4887
▁원래는	-4888
▁웬만한	-4889
▁유난히	-4890
▁유리공	-4891
▁의미가	-4892
▁이것만	-4893
▁이야기	-4894
▁이제야	-4895
▁인스타	-4896
▁있네요	-4897
▁있으니	-4898
▁잊어버	-4899
▁자동차	-4900
▁자라고	-4901
▁자르는	-4902
▁자리가	-4903
▁잡았다	-4904
▁장인은	-4905
▁장인이	-4906
▁전복은	-4907
▁전복의	-4908
▁조업이	-4909
▁종류가	-4910
▁좋은데	-4911
▁준다고	-4912
▁준비해	-4913
▁중에서	-4914
▁지금이	-4915
▁지나면	-4916
▁집사람	-4917
▁집안의	-4918
▁집어넣	-4919
▁찾기란	-4920
▁찾으러	-4921
▁채비를	-4922
▁최고로	-4923
▁최상의	-4924
▁추어탕	-4925
▁추위에	-4926
▁충분히	-4927
▁타조가	-4928
▁토마토	-4929
▁특별히	-4930
▁파이프	-4931
▁표정이	-4932
▁풀리지	-4933
▁하네요	-4934
▁하느라	-4935
▁하루를	-4936
▁할게요	-4937
▁해놓고	-4938
▁해주고	-4939
▁행복한	-4940
▁호흡이	-4941
▁홍게는	-4942
▁화려한	-4943
▁화장실	-4944
▁황토를	-4945
▁흐른다	-4946
▁힘들다	-4947
너마이트	-4948
렸습니다	-4949
셨습니다	-4950
▁2000	-4951
▁가능하다	-4952
▁거푸집을	-4953
▁걱정이다	-4954
▁고등어를	-4955
▁과감하게	-4956
▁괜찮아요	-4957
▁궁금하다	-4958
▁그물에서	-4959
▁기록되어	-4960
▁기준으로	-4961
▁나오니까	-4962
▁내려오는	-4963
▁높습니다	-4964
▁누구보다	-4965
▁다양하다	-4966
▁당시에는	-4967
▁대추나무	-4968
▁대표적인	-4969
▁도라지를	-4970
▁도와줘야	-4971
▁돌소금을	-4972
▁됐습니다	-4973
▁되잖아요	-4974
▁들어가고	-4975
▁들어가야	-4976
▁들어갔다	-4977
▁들어온다	-4978
▁들어있는	-4979
▁땅속에서	-4980
▁떨어지면	-4981
▁떨어지지	-4982
▁만들었다	-4983
▁만듭니다	-4984
▁많습니다	-4985
▁맛있어요	-4986
▁먹습니다	-4987
▁멧돼지를	-4988
▁모르겠다	-4989
▁바랍니다	-4990
▁복잡하다	-4991
▁부드럽게	-4992
▁부드럽고	-4993
▁부모님을	-4994
▁분주하다	-4995
▁붙어있는	-4996
▁사라지고	-4997
▁생각이다	-4998
▁생명력을	-4999
▁선장이다	-5000
▁손놀림이	-5001
▁시아버지	-5002
▁시작됐다	-5003
▁시작하는	-5004
▁신선도가	-5005
▁아름다운	-5006
▁아버지도	-5007
▁아슬아슬	-5008
▁아이들이	-5009
▁앞으로도	-5010
▁어머니를	-5011
▁엄마한테	-5012
▁여름에는	-5013
▁옥수수를	-5014
▁올라가야	-5015
▁완성된다	-5016
▁요즘에는	-5017
▁움직이는	-5018
▁이동하는	-5019
▁이리저리	-5020
▁이어간다	-5021
▁일이라면	-5022
▁있었어요	-5023
▁자랍니다	-5024
▁자랑하는	-5025
▁작업자가	-5026
▁잘라낸다	-5027
▁잘못하면	-5028
▁제거하는	-5029
▁제작진의	-5030
▁줄가자미	-5031
▁중에서도	-5032
▁차곡차곡	-5033
▁참나무는	-5034
▁최근에는	-5035
▁토종벌을	-5036
▁프라이팬	-5037
▁하니까요	-5038
▁한가운데	-5039
▁한꺼번에	-5040
▁해녀들이	-5041
▁해줍니다	-5042
▁확인하는	-5043
▁힘들어도	-5044
▁감태나무는	-5045
▁것만으로도	-5046
▁기름가자미	-5047
▁노랑가오리	-5048
▁능이버섯을	-5049
▁다이아몬드	-5050
▁만들어졌다	-5051
▁상태입니다	-5052
▁생각합니다	-5053
▁시어머니가	-5054
▁약초꾼들의	-5055
▁어머니에게	-5056
▁인스타그램	-5057
▁차가버섯을	-5058
▁황소개구리	-5059
▁다이너마이트	-5060
0.	-5061
~1	-5062
▁갚	-5063
▁괴	-5064
▁긁	-5065
▁꺾	-5066
▁꼽	-5067
▁났	-5068
▁덖	-5069
▁덥	-5070
▁돋	-5071
▁둬	-5072
▁딴	-5073
▁뜬	-5074
▁루	-5075
▁벅	-5076
▁빻	-5077
▁뽀	-5078
▁섭	-5079
▁쉼	-5080
▁싼	-5081
▁악	-5082
▁엔	-5083
▁옹	-5084
▁왼	-5085
▁웨	-5086
▁잤	-5087
▁찰	-5088
▁첨	-5089
▁콜	-5090
▁텃	-5091
▁퉁	-5092
▁티	-5093
▁패	-5094
▁홈	-5095
가고	-5096
각을	-5097
감은	-5098
강목	-5099
개발	-5100
거야	-5101
거지	-5102
겠지	-5103
격이	-5104
견을	-5105
고로	-5106
과는	-5107
관을	-5108
관이	-5109
급을	-5110
급히	-5111
기일	-5112
길도	-5113
끈한	-5114
나고	-5115
나절	-5116
냐고	-5117
냐면	-5118
년간	-5119
단다	-5120
달아	-5121
답게	-5122
대요	-5123
덩어	-5124
동남	-5125
동생	-5126
두지	-5127
드레	-5128
득한	-5129
들께	-5130
등이	-5131
떼가	-5132
똥성	-5133
랗게	-5134
량의	-5135
려니	-5136
련된	-5137
령이	-5138
르게	-5139
름이	-5140
리게	-5141
릿대	-5142
맘때	-5143
망에	-5144
먹는	-5145
먹을	-5146
면에	-5147
면을	-5148
명을	-5149
무늬	-5150
무덤	-5151
바늘	-5152
바탕	-5153
박을	-5154
반의	-5155
발의	-5156
밭을	-5157
백한	-5158
별로	-5159
보단	-5160
보지	-5161
봉을	-5162
부러	-5163
불퉁	-5164
비의	-5165
비탈	-5166
빗이	-5167
산도	-5168
산의	-5169
상은	-5170
상태	-5171
서가	-5172
서를	-5173
성에	-5174
셔서	-5175
셰프	-5176
소장	-5177
손을	-5178
송이	-5179
수공	-5180
수저	-5181
쉬운	-5182
시를	-5183
시오	-5184
심은	-5185
야죠	-5186
어묵	-5187
없다	-5188
염병	-5189
영국	-5190
원경	-5191
원이	-5192
이게	-5193
이어	-5194
익은	-5195
인은	-5196
인의	-5197
인조	-5198
잠을	-5199
장인	-5200
저래	-5201
적이	-5202
전도	-5203
전이	-5204
주기	-5205
줘서	-5206
증이	-5207
지게	-5208
지자	-5209
질러	-5210
질로	-5211
질의	-5212
쨌든	-5213
차도	-5214
처리	-5215
천의	-5216
충이	-5217
치드	-5218
치로	-5219
치에	-5220
칠까	-5221
탱글	-5222
텔라	-5223
토피	-5224
톤의	-5225
팅을	-5226
포를	-5227
풍을	-5228
하얀	-5229
학생	-5230
할까	-5231
해가	-5232
해의	-5233
혈압	-5234
화된	-5235
회를	-5236
▁17	-5237
▁4,	-5238
▁90	-5239
▁가라	-5240
▁가물	-5241
▁가상	-5242
▁가오	-5243
▁가파	-5244
▁각별	-5245
▁각자	-5246
▁갈비	-5247
▁갑판	-5248
▁같지	-5249
▁개척	-5250
▁거두	-5251
▁거듭	-5252
▁거를	-5253
▁거북	-5254
▁거침	-5255
▁건드	-5256
▁걷어	-5257
▁겨를	-5258
▁견뎌	-5259
▁견디	-5260
▁결코	-5261
▁경사	-5262
▁경쟁	-5263
▁곁에	-5264
▁고소	-5265
▁고수	-5266
▁곡괭	-5267
▁곱돌	-5268
▁공개	-5269
▁공연	-5270
▁공판	-5271
▁과일	-5272
▁관한	-5273
▁교통	-5274
▁구경	-5275
▁구분	-5276
▁구석	-5277
▁귀가	-5278
▁귀찮	-5279
▁그건	-5280
▁글씨	-5281
▁금괴	-5282
▁금란	-5283
▁금은	-5284
▁금지	-5285
▁기껏	-5286
▁기쁨	-5287
▁기절	-5288
▁길게	-5289
▁김장	-5290
▁깎는	-5291
▁깜빡	-5292
▁깨기	-5293
▁꼬리	-5294
▁꼬박	-5295
▁꼭대	-5296
▁꽁꽁	-5297
▁꽃이	-5298
▁꿀의	-5299
▁꿈을	-5300
▁끊어	-5301
▁끓인	-5302
▁끝났	-5303
▁끝을	-5304
▁끼고	-5305
▁끼니	-5306
▁나니	-5307
▁나빠	-5308
▁나죠	-5309
▁날은	-5310
▁남해	-5311
▁납작	-5312
▁낯선	-5313
▁낳는	-5314
▁내고	-5315
▁내보	-5316
▁내어	-5317
▁내용	-5318
▁넝쿨	-5319
▁넣은	-5320
▁넣을	-5321
▁년을	-5322
▁년이	-5323
▁노루	-5324
▁노출	-5325
▁녹은	-5326
▁놀러	-5327
▁농기	-5328
▁농민	-5329
▁놓여	-5330
▁놔두	-5331
▁눈빛	-5332
▁눈앞	-5333
▁느낄	-5334
▁다잡	-5335
▁다친	-5336
▁달린	-5337
▁달아	-5338
▁닭이	-5339
▁담긴	-5340
▁담은	-5341
▁닿는	-5342
▁대처	-5343
▁대철	-5344
▁덕분	-5345
▁데도	-5346
▁독성	-5347
▁돌입	-5348
▁동료	-5349
▁동일	-5350
▁두껍	-5351
▁두충	-5352
▁둘레	-5353
▁듯이	-5354
▁등장	-5355
▁따기	-5356
▁따는	-5357
▁땀과	-5358
▁때라	-5359
▁떠오	-5360
▁떼가	-5361
▁뜰채	-5362
▁띄게	-5363
▁띈다	-5364
▁띠는	-5365
▁막상	-5366
▁말아	-5367
▁맞고	-5368
▁맞다	-5369
▁맞이	-5370
▁맞춤	-5371
▁맥을	-5372
▁멈춘	-5373
▁멈출	-5374
▁멈췄	-5375
▁명숙	-5376
▁모으	-5377
▁몰래	-5378
▁못할	-5379
▁못해	-5380
▁무기	-5381
▁무쇠	-5382
▁무인	-5383
▁문이	-5384
▁문종	-5385
▁물로	-5386
▁미니	-5387
▁미래	-5388
▁민물	-5389
▁밀랍	-5390
▁밑창	-5391
▁바둑	-5392
▁바빴	-5393
▁박동	-5394
▁반듯	-5395
▁반해	-5396
▁밝아	-5397
▁밟고	-5398
▁밤낮	-5399
▁밤을	-5400
▁방부	-5401
▁방지	-5402
▁배고	-5403
▁배들	-5404
▁백탄	-5405
▁버거	-5406
▁버는	-5407
▁버린	-5408
▁번을	-5409
▁벌고	-5410
▁벌을	-5411
▁벼랑	-5412
▁보태	-5413
▁복례	-5414
▁복용	-5415
▁봄을	-5416
▁부자	-5417
▁부품	-5418
▁분도	-5419
▁분홍	-5420
▁불과	-5421
▁불량	-5422
▁블랙	-5423
▁비롯	-5424
▁비린	-5425
▁비밀	-5426
▁비쌉	-5427
▁빈틈	-5428
▁빗의	-5429
▁빠진	-5430
▁빼곡	-5431
▁뿌듯	-5432
▁사각	-5433
▁사료	-5434
▁산골	-5435
▁산의	-5436
▁산중	-5437
▁살살	-5438
▁살충	-5439
▁상관	-5440
▁상승	-5441
▁상인	-5442
▁새는	-5443
▁새삼	-5444
▁새우	-5445
▁생김	-5446
▁생태	-5447
▁서까	-5448
▁석유	-5449
▁석탄	-5450
▁섞은	-5451
▁성게	-5452
▁성질	-5453
▁세게	-5454
▁세심	-5455
▁소개	-5456
▁손꼽	-5457
▁수온	-5458
▁수입	-5459
▁숙자	-5460
▁순복	-5461
▁순수	-5462
▁승부	-5463
▁시대	-5464
▁시도	-5465
▁시장	-5466
▁시행	-5467
▁식탁	-5468
▁식혜	-5469
▁신고	-5470
▁신남	-5471
▁신문	-5472
▁신이	-5473
▁실내	-5474
▁실수	-5475
▁실제	-5476
▁십오	-5477
▁싹이	-5478
▁써요	-5479
▁썰어	-5480
▁쓰게	-5481
▁쓰레	-5482
▁씻고	-5483
▁아가	-5484
▁아쉽	-5485
▁안동	-5486
▁안을	-5487
▁안타	-5488
▁않았	-5489
▁알면	-5490
▁야속	-5491
▁약용	-5492
▁약한	-5493
▁양보	-5494
▁어긋	-5495
▁어서	-5496
▁어선	-5497
▁어종	-5498
▁어지	-5499
▁없게	-5500
▁엉뚱	-5501
▁엎드	-5502
▁여간	-5503
▁연료	-5504
▁영조	-5505
▁예인	-5506
▁예측	-5507
▁오고	-5508
▁오석	-5509
▁오순	-5510
▁올게	-5511
▁올무	-5512
▁와야	-5513
▁와요	-5514
▁와중	-5515
▁외항	-5516
▁요양	-5517
▁용돈	-5518
▁울퉁	-5519
▁웨이	-5520
▁유약	-5521
▁은은	-5522
▁의사	-5523
▁이끼	-5524
▁이룬	-5525
▁이장	-5526
▁이젠	-5527
▁일등	-5528
▁잎은	-5529
▁자고	-5530
▁자른	-5531
▁자부	-5532
▁작년	-5533
▁잘려	-5534
▁잡았	-5535
▁장난	-5536
▁장식	-5537
▁장이	-5538
▁장훈	-5539
▁재가	-5540
▁재규	-5541
▁재래	-5542
▁저렴	-5543
▁적어	-5544
▁적은	-5545
▁전시	-5546
▁절반	-5547
▁접고	-5548
▁정심	-5549
▁정작	-5550
▁제발	-5551
▁제왕	-5552
▁제품	-5553
▁조그	-5554
▁조기	-5555
▁조류	-5556
▁조카	-5557
▁족히	-5558
▁종묘	-5559
▁죄송	-5560
▁주꾸	-5561
▁주말	-5562
▁주희	-5563
▁준민	-5564
▁중간	-5565
▁즐길	-5566
▁지났	-5567
▁지도	-5568
▁지붕	-5569
▁지정	-5570
▁지체	-5571
▁지쳐	-5572
▁지킬	-5573
▁지하	-5574
▁지혜	-5575
▁질환	-5576
▁집게	-5577
▁집은	-5578
▁짜고	-5579
▁쪼개	-5580
▁쪽파	-5581
▁참숯	-5582
▁찻잔	-5583
▁책을	-5584
▁처형	-5585
▁철저	-5586
▁첨가	-5587
▁청소	-5588
▁청정	-5589
▁쳐다	-5590
▁초록	-5591
▁출근	-5592
▁출발	-5593
▁충청	-5594
▁치료	-5595
▁친다	-5596
▁친정	-5597
▁칠십	-5598
▁침이	-5599
▁칼날	-5600
▁칼로	-5601
▁캐고	-5602
▁커요	-5603
▁켠에	-5604
▁크레	-5605
▁큰딸	-5606
▁큰아	-5607
▁타박	-5608
▁탄다	-5609
▁탐침	-5610
▁털고	-5611
▁텐트	-5612
▁통과	-5613
▁특유	-5614
▁틈새	-5615
▁파는	-5616
▁판을	-5617
▁팽이	-5618
▁포도	-5619
▁포함	-5620
▁피우	-5621
▁피톤	-5622
▁하산	-5623
▁하여	-5624
▁하영	-5625
▁하죠	-5626
▁한달	-5627
▁한약	-5628
▁한쪽	-5629
▁해봤	-5630
▁핵심	-5631
▁햇빛	-5632
▁헤매	-5633
▁헤아	-5634
▁헤쳐	-5635
▁현숙	-5636
▁현장	-5637
▁호가	-5638
▁호미	-5639
▁호장	-5640
▁화로	-5641
▁화투	-5642
▁환을	-5643
▁효과	-5644
▁효능	-5645
▁효소	-5646
▁휴식	-5647
▁흙과	-5648
▁흠집	-5649
▁흡수	-5650
▁희귀	-5651
▁희망	-5652
간에서	-5653
거리는	-5654
꾼들은	-5655
년이나	-5656
놓으면	-5657
다고요	-5658
다보니	-5659
되면서	-5660
두지휘	-5661
들까지	-5662
들끼리	-5663
들한테	-5664
라니까	-5665
렸어요	-5666
목으로	-5667
버려요	-5668
보기로	-5669
보는데	-5670
봅니다	-5671
불퉁한	-5672
산이다	-5673
살이다	-5674
색으로	-5675
석이다	-5676
선으로	-5677
셔야죠	-5678
시나요	-5679
시네요	-5680
시키고	-5681
식이다	-5682
십니까	-5683
았다고	-5684
어내기	-5685
어야지	-5686
에서만	-5687
을까요	-5688
이예요	-5689
자리를	-5690
작업이	-5691
전까지	-5692
점에서	-5693
졌다고	-5694
준다고	-5695
줬으면	-5696
지는데	-5697
지에서	-5698
진다고	-5699
질수록	-5700
초강목	-5701
칙이다	-5702
하려는	-5703
하려면	-5704
하세요	-5705
할수록	-5706
함으로	-5707
해지기	-5708
했다고	-5709
회복에	-5710
▁2~3	-5711
▁400	-5712
▁가다듬	-5713
▁가려고	-5714
▁가루를	-5715
▁가르쳐	-5716
▁가마에	-5717
▁가슴이	-5718
▁가시가	-5719
▁가정을	-5720
▁가져다	-5721
▁가져와	-5722
▁간단한	-5723
▁갈아입	-5724
▁거쳐야	-5725
▁거치면	-5726
▁걸려요	-5727
▁걸렸다	-5728
▁것인지	-5729
▁겉모습	-5730
▁결심을	-5731
▁곁으로	-5732
▁계세요	-5733
▁고기잡	-5734
▁고단한	-5735
▁고추가	-5736
▁고향에	-5737
▁고혈압	-5738
▁공장을	-5739
▁공정을	-5740
▁괜찮은	-5741
▁구기자	-5742
▁구멍의	-5743
▁구영국	-5744
▁군락을	-5745
▁그걸로	-5746
▁그녀의	-5747
▁그러니	-5748
▁그러지	-5749
▁그렇죠	-5750
▁그림을	-5751
▁그보다	-5752
▁기간이	-5753
▁기력을	-5754
▁긴장한	-5755
▁김무생	-5756
▁까맣게	-5757
▁깨지지	-5758
▁껍질이	-5759
▁꽁치를	-5760
▁끓이는	-5761
▁끝없이	-5762
▁끝에서	-5763
▁나가서	-5764
▁나갔다	-5765
▁나갔던	-5766
▁나란히	-5767
▁나른다	-5768
▁나무로	-5769
▁남자가	-5770
▁내려갈	-5771
▁내리고	-5772
▁내용을	-5773
▁노력을	-5774
▁농사일	-5775
▁농장을	-5776
▁농장주	-5777
▁누구나	-5778
▁다루는	-5779
▁다뤄야	-5780
▁달라요	-5781
▁대물이	-5782
▁대해서	-5783
▁도구가	-5784
▁도왔다	-5785
▁독성이	-5786
▁독특한	-5787
▁돌렸다	-5788
▁돌무덤	-5789
▁동생은	-5790
▁동안은	-5791
▁되면서	-5792
▁될까요	-5793
▁뒤늦게	-5794
▁들어갈	-5795
▁들어있	-5796
▁듭니다	-5797
▁따르면	-5798
▁뛰어난	-5799
▁뜻이다	-5800
▁마당에	-5801
▁마리나	-5802
▁마리를	-5803
▁마시고	-5804
▁많아야	-5805
▁말대로	-5806
▁말똥성	-5807
▁말벌을	-5808
▁말벌의	-5809
▁말이야	-5810
▁말하는	-5811
▁맛있고	-5812
▁맞추는	-5813
▁머금고	-5814
▁머리가	-5815
▁먹으러	-5816
▁멈추게	-5817
▁멧돼지	-5818
▁면역력	-5819
▁모르게	-5820
▁모인다	-5821
▁모종을	-5822
▁목화솜	-5823
▁못하게	-5824
▁몽골의	-5825
▁무늬를	-5826
▁문양을	-5827
▁문제는	-5828
▁미역국	-5829
▁미역귀	-5830
▁바닷가	-5831
▁바닷일	-5832
▁바빠서	-5833
▁바위가	-5834
▁바위에	-5835
▁바퀴가	-5836
▁반응이	-5837
▁반죽을	-5838
▁반찬을	-5839
▁받는다	-5840
▁받아서	-5841
▁발견된	-5842
▁발길이	-5843
▁밧줄을	-5844
▁버렸다	-5845
▁버리는	-5846
▁번호가	-5847
▁변동남	-5848
▁변한다	-5849
▁보기만	-5850
▁보려고	-5851
▁보석이	-5852
▁보세요	-5853
▁보어를	-5854
▁보이죠	-5855
▁부모가	-5856
▁부부다	-5857
▁부위를	-5858
▁부자가	-5859
▁분들은	-5860
▁붓는다	-5861
▁블루베	-5862
▁빠진다	-5863
▁뻔했다	-5864
▁뿌리에	-5865
▁사나이	-5866
▁사료를	-5867
▁사실은	-5868
▁사용할	-5869
▁사이를	-5870
▁산비탈	-5871
▁살아남	-5872
▁살피는	-5873
▁상자에	-5874
▁상태로	-5875
▁상한다	-5876
▁상황에	-5877
▁상황은	-5878
▁새끼가	-5879
▁새하얀	-5880
▁색깔을	-5881
▁색으로	-5882
▁생각만	-5883
▁생기는	-5884
▁생명을	-5885
▁생명의	-5886
▁생선이	-5887
▁생으로	-5888
▁생활을	-5889
▁서운한	-5890
▁서울에	-5891
▁선생님	-5892
▁섬세한	-5893
▁소리에	-5894
▁속상한	-5895
▁손길로	-5896
▁손상이	-5897
▁수분을	-5898
▁수액은	-5899
▁수입이	-5900
▁스텔라	-5901
▁스트레	-5902
▁습성을	-5903
▁시선을	-5904
▁시원한	-5905
▁시켜야	-5906
▁시키는	-5907
▁식감이	-5908
▁신경이	-5909
▁신중을	-5910
▁실력이	-5911
▁실패한	-5912
▁심기일	-5913
▁싶었던	-5914
▁씨앗을	-5915
▁씨이다	-5916
▁아니면	-5917
▁아들인	-5918
▁아무렇	-5919
▁아토피	-5920
▁아프지	-5921
▁안개가	-5922
▁알았다	-5923
▁약재로	-5924
▁약재를	-5925
▁양식을	-5926
▁어깨에	-5927
▁어느덧	-5928
▁어두운	-5929
▁어디서	-5930
▁어묵은	-5931
▁어장을	-5932
▁어쨌든	-5933
▁어쩐지	-5934
▁언니가	-5935
▁언제든	-5936
▁얻었다	-5937
▁얼굴을	-5938
▁엄마와	-5939
▁없다는	-5940
▁없도록	-5941
▁없잖아	-5942
▁없지만	-5943
▁에어컨	-5944
▁여왕벌	-5945
▁역시나	-5946
▁연결된	-5947
▁연결해	-5948
▁염소를	-5949
▁영원히	-5950
▁옆으로	-5951
▁예쁘게	-5952
▁예쁘다	-5953
▁오늘의	-5954
▁오르고	-5955
▁오르내	-5956
▁오세요	-5957
▁온도로	-5958
▁온종일	-5959
▁올리기	-5960
▁올해는	-5961
▁요리는	-5962
▁요리를	-5963
▁욕심이	-5964
▁우러난	-5965
▁우리도	-5966
▁위쪽에	-5967
▁위험을	-5968
▁위험이	-5969
▁유약을	-5970
▁육소장	-5971
▁육지에	-5972
▁은갈치	-5973
▁은수저	-5974
▁은으로	-5975
▁음식이	-5976
▁이곳이	-5977
▁이들의	-5978
▁이루고	-5979
▁이루지	-5980
▁이번에	-5981
▁이해가	-5982
▁익으면	-5983
▁인고의	-5984
▁인기가	-5985
▁일정한	-5986
▁일하지	-5987
▁있기에	-5988
▁있잖아	-5989
▁자기는	-5990
▁자네가	-5991
▁자라난	-5992
▁자라를	-5993
▁자랐다	-5994
▁자식이	-5995
▁자연에	-5996
▁자체로	-5997
▁작업만	-5998
▁작업자	-5999
▁작용을	-6000
▁잘라서	-6001
▁잘하는	-6002
▁잘한다	-6003
▁잡아도	-6004
▁잡히는	-6005
▁장수를	-6006
▁장수의	-6007
▁장어를	-6008
▁장어의	-6009
▁저렇게	-6010
▁적당한	-6011
▁적당히	-6012
▁전염병	-6013
▁전쟁이	-6014
▁전체를	-6015
▁절벽에	-6016
▁점심을	-6017
▁정도를	-6018
▁정도만	-6019
▁제철을	-6020
▁제품이	-6021
▁조각을	-6022
▁조심히	-6023
▁조업에	-6024
▁좀처럼	-6025
▁좋아서	-6026
▁좋아할	-6027
▁주문이	-6028
▁주인공	-6029
▁주전자	-6030
▁죽방렴	-6031
▁준다는	-6032
▁줄줄이	-6033
▁줍니다	-6034
▁지났다	-6035
▁지네를	-6036
▁지키고	-6037
▁직원이	-6038
▁집안에	-6039
▁짓는다	-6040
▁차가운	-6041
▁차량이	-6042
▁참문어	-6043
▁찾기가	-6044
▁찾아다	-6045
▁채우고	-6046
▁채우는	-6047
▁채취꾼	-6048
▁챙기는	-6049
▁챙기랴	-6050
▁최고급	-6051
▁최고다	-6052
▁최선을	-6053
▁커피를	-6054
▁크기로	-6055
▁털어놓	-6056
▁통발을	-6057
▁투명한	-6058
▁투박한	-6059
▁판매를	-6060
▁포기할	-6061
▁표면에	-6062
▁피해가	-6063
▁하다가	-6064
▁하라고	-6065
▁하려면	-6066
▁하면서	-6067
▁하얗게	-6068
▁한겨울	-6069
▁한계가	-6070
▁한눈에	-6071
▁한마리	-6072
▁한바탕	-6073
▁할매는	-6074
▁해놓은	-6075
▁해마는	-6076
▁해발이	-6077
▁해야죠	-6078
▁했더니	-6079
▁했잖아	-6080
▁현상이	-6081
▁현실을	-6082
▁형태의	-6083
▁확실한	-6084
▁환경에	-6085
▁황토가	-6086
▁흐르는	-6087
▁흔적이	-6088
▁힘으로	-6089
▁힘차게	-6090
들에게는	-6091
버렸어요	-6092
버섯이다	-6093
시간이다	-6094
씨입니다	-6095
어가는데	-6096
하면서도	-6097
▁100%	-6098
▁가자미가	-6099
▁가족들은	-6100
▁가족들을	-6101
▁간단하게	-6102
▁갑훈씨는	-6103
▁거침없이	-6104
▁걱정되는	-6105
▁걸립니다	-6106
▁고생하는	-6107
▁고향으로	-6108
▁귀뚜라미	-6109
▁그러면서	-6110
▁긴장되는	-6111
▁까다로운	-6112
▁껍데기가	-6113
▁나갑니다	-6114
▁나머지는	-6115
▁나무에서	-6116
▁내년에는	-6117
▁내려간다	-6118
▁내려와서	-6119
▁넣어준다	-6120
▁능숙하게	-6121
▁다가왔다	-6122
▁달라지기	-6123
▁답답하다	-6124
▁대한민국	-6125
▁도와주면	-6126
▁도와주지	-6127
▁도자기를	-6128
▁돌아가고	-6129
▁되거든요	-6130
▁드러내지	-6131
▁들어가면	-6132
▁따뜻하게	-6133
▁떨어지기	-6134
▁만들어요	-6135
▁매끄럽게	-6136
▁멧돼지는	-6137
▁며느리는	-6138
▁면역력을	-6139
▁못합니다	-6140
▁물고기가	-6141
▁물속으로	-6142
▁밑그림을	-6143
▁바닷바람	-6144
▁바빠진다	-6145
▁바지락을	-6146
▁반듯하게	-6147
▁발견됐다	-6148
▁발견하고	-6149
▁방법이다	-6150
▁보기에도	-6151
▁보양식을	-6152
▁보이지만	-6153
▁부드러운	-6154
▁분위기가	-6155
▁비쌉니다	-6156
▁사람들과	-6157
▁사람들도	-6158
▁살펴보니	-6159
▁상당하다	-6160
▁생각하지	-6161
▁생각해도	-6162
▁서비스로	-6163
▁서식하는	-6164
▁서울에서	-6165
▁선물이다	-6166
▁손질하는	-6167
▁숨어있는	-6168
▁싶었는데	-6169
▁쏟아지는	-6170
▁아닌가요	-6171
▁아이들의	-6172
▁아프다고	-6173
▁않아서요	-6174
▁알았는데	-6175
▁약재이다	-6176
▁약초꾼의	-6177
▁약초이다	-6178
▁어디까지	-6179
▁어부들의	-6180
▁오골계의	-6181
▁올라간다	-6182
▁올라와서	-6183
▁와중에도	-6184
▁운영하는	-6185
▁유지하기	-6186
▁음식으로	-6187
▁이들에게	-6188
▁이래저래	-6189
▁이상하다	-6190
▁이야기를	-6191
▁이용해서	-6192
▁이제부터	-6193
▁일어나서	-6194
▁일엽초가	-6195
▁일엽초는	-6196
▁일정하게	-6197
▁일품이다	-6198
▁있거든요	-6199
▁있을까요	-6200
▁자식들이	-6201
▁자신에게	-6202
▁작업까지	-6203
▁잔뿌리를	-6204
▁잔소리가	-6205
▁잔소리를	-6206
▁정도이다	-6207
▁정신없이	-6208
▁정아씨다	-6209
▁제거해야	-6210
▁제작진이	-6211
▁졌습니다	-6212
▁좋아지는	-6213
▁좋으니까	-6214
▁진두지휘	-6215
▁집중해야	-6216
▁채취하기	-6217
▁채취하는	-6218
▁책임지는	-6219
▁치명적인	-6220
▁토사자를	-6221
▁토종벌이	-6222
▁편안하게	-6223
▁포착됐다	-6224
▁피톤치드	-6225
▁하는데요	-6226
▁함유되어	-6227
▁허락하지	-6228
▁확실하다	-6229
▁힘드니까	-6230
▁힘들어서	-6231
▁힘들었던	-6232
▁힘들지만	-6233
▁겨우살이를	-6234
▁녀석들이다	-6235
▁능이버섯은	-6236
▁담쟁이덩굴	-6237
▁도구입니다	-6238
▁되었습니다	-6239
▁떨어집니다	-6240
▁마찬가지다	-6241
▁망태버섯은	-6242
▁못마땅하다	-6243
▁보양식으로	-6244
▁사이사이에	-6245
▁산양산삼은	-6246
▁시작하는데	-6247
▁어렵습니다	-6248
▁완성되었다	-6249
▁울퉁불퉁한	-6250
▁위해서라도	-6251
▁위해서이다	-6252
▁위험천만한	-6253
▁유목민들의	-6254
▁이곳에서는	-6255
▁이루어지고	-6256
▁이제부터는	-6257
▁있었습니다	-6258
▁자연적으로	-6259
▁전통적으로	-6260
▁찔레버섯은	-6261
▁찔레버섯이	-6262
▁하더라고요	-6263
▁할아버지의	-6264
▁도착하자마자	-6265
▁황소개구리의	-6266
',	-6267
01	-6268
46	-6269
90	-6270
mm	-6271
~7	-6272
~8	-6273
▁걔	-6274
▁겹	-6275
▁굶	-6276
▁귤	-6277
▁꿩	-6278
▁끄	-6279
▁낼	-6280
▁덧	-6281
▁둔	-6282
▁뜯	-6283
▁띤	-6284
▁뺀	-6285
▁뺏	-6286
▁뻥	-6287
▁삭	-6288
▁샤	-6289
▁쌉	-6290
▁쏙	-6291
▁씁	-6292
▁씩	-6293
▁얹	-6294
▁얽	-6295
▁월	-6296
▁으	-6297
▁읽	-6298
▁잉	-6299
▁잦	-6300
▁좌	-6301
▁짊	-6302
▁징	-6303
▁짭	-6304
▁째	-6305
▁쳤	-6306
▁촘	-6307
▁춥	-6308
▁칭	-6309
▁컵	-6310
▁탔	-6311
▁핑	-6312
▁헛	-6313
▁헬	-6314
▁혀	-6315
각의	-6316
각이	-6317
각형	-6318
갑을	-6319
값이	-6320
개다	-6321
개만	-6322
건영	-6323
건이	-6324
건조	-6325
결을	-6326
결이	-6327
고는	-6328
공순	-6329
교육	-6330
구리	-6331
군다	-6332
귀를	-6333
균을	-6334
그날	-6335
기인	-6336
길까	-6337
길래	-6338
꽃을	-6339
꾼이	-6340
나갈	-6341
나도	-6342
내를	-6343
내며	-6344
내면	-6345
냐는	-6346
냐에	-6347
넨다	-6348
년도	-6349
년생	-6350
년은	-6351
념이	-6352
노산	-6353
놔야	-6354
느러	-6355
능에	-6356
니는	-6357
님도	-6358
다를	-6359
달콩	-6360
담이	-6361
더라	-6362
도와	-6363
도저	-6364
독을	-6365
독한	-6366
동은	-6367
두를	-6368
두릅	-6369
든가	-6370
들에	-6371
따라	-6372
떼를	-6373
뚝만	-6374
라니	-6375
라우	-6376
라인	-6377
랐을	-6378
량은	-6379
렀다	-6380
려다	-6381
련한	-6382
로잡	-6383
로지	-6384
론이	-6385
롭다	-6386
롭지	-6387
루묵	-6388
르다	-6389
르던	-6390
르며	-6391
름한	-6392
마에	-6393
만실	-6394
말벌	-6395
메기	-6396
묘한	-6397
무책	-6398
미가	-6399
바야	-6400
바퀴	-6401
반사	-6402
받지	-6403
발이	-6404
배가	-6405
배나	-6406
백숙	-6407
번째	-6408
법을	-6409
법이	-6410
변에	-6411
병은	-6412
병이	-6413
보던	-6414
복수	-6415
봉방	-6416
부도	-6417
부로	-6418
부모	-6419
부패	-6420
불에	-6421
불을	-6422
비싼	-6423
비아	-6424
뿐인	-6425
사냥	-6426
사랑	-6427
사리	-6428
사오	-6429
사이	-6430
산지	-6431
상과	-6432
색은	-6433
서야	-6434
선도	-6435
성기	-6436
성은	-6437
성호	-6438
세에	-6439
센트	-6440
소의	-6441
숭이	-6442
스에	-6443
슬고	-6444
습을	-6445
시대	-6446
시켰	-6447
식물	-6448
신이	-6449
쓰는	-6450
아이	-6451
안에	-6452
안와	-6453
알이	-6454
약초	-6455
양의	-6456
업을	-6457
여름	-6458
여분	-6459
연의	-6460
였을	-6461
오른	-6462
오를	-6463
용에	-6464
울을	-6465
움은	-6466
움이	-6467
원과	-6468
월이	-6469
위는	-6470
위로	-6471
으나	-6472
이도	-6473
이요	-6474
인에	-6475
일지	-6476
있던	-6477
있어	-6478
자도	-6479
자로	-6480
자루	-6481
자리	-6482
재료	-6483
재에	-6484
저것	-6485
전거	-6486
전은	-6487
절로	-6488
점금	-6489
점에	-6490
점이	-6491
정한	-6492
제도	-6493
조가	-6494
종을	-6495
종인	-6496
주에	-6497
준이	-6498
준한	-6499
줄게	-6500
중인	-6501
중지	-6502
줬다	-6503
증도	-6504
증에	-6505
증을	-6506
지방	-6507
지역	-6508
진은	-6509
질은	-6510
집의	-6511
짜리	-6512
차고	-6513
차를	-6514
천만	-6515
천에	-6516
철엔	-6517
청을	-6518
초는	-6519
초도	-6520
초에	-6521
초의	-6522
추를	-6523
충봉	-6524
치기	-6525
치의	-6526
칠을	-6527
켓을	-6528
키나	-6529
키며	-6530
터로	-6531
터의	-6532
테롤	-6533
토막	-6534
통령	-6535
틀에	-6536
포로	-6537
포화	-6538
표면	-6539
품은	-6540
풍에	-6541
픔을	-6542
피는	-6543
하긴	-6544
하네	-6545
하셨	-6546
학교	-6547
한의	-6548
한지	-6549
함도	-6550
함의	-6551
했고	-6552
형을	-6553
호를	-6554
화와	-6555
화할	-6556
후를	-6557
...	-6558
▁0.	-6559
▁1,	-6560
▁16	-6561
▁3,	-6562
▁72	-6563
▁95	-6564
▁가느	-6565
▁가뭄	-6566
▁가열	-6567
▁가정	-6568
▁간의	-6569
▁간이	-6570
▁감기	-6571
▁감사	-6572
▁감지	-6573
▁값어	-6574
▁갓이	-6575
▁갖춘	-6576
▁개나	-6577
▁개도	-6578
▁개인	-6579
▁개체	-6580
▁거라	-6581
▁거면	-6582
▁견고	-6583
▁견인	-6584
▁경철	-6585
▁경희	-6586
▁곁을	-6587
▁계란	-6588
▁계산	-6589
▁고모	-6590
▁고운	-6591
▁고쳐	-6592
▁고통	-6593
▁곧게	-6594
▁골동	-6595
▁골이	-6596
▁골치	-6597
▁곳도	-6598
▁과학	-6599
▁관심	-6600
▁광산	-6601
▁교습	-6602
▁교차	-6603
▁교체	-6604
▁구할	-6605
▁국화	-6606
▁굳어	-6607
▁굴을	-6608
▁굴이	-6609
▁귀함	-6610
▁그를	-6611
▁그새	-6612
▁금값	-6613
▁금광	-6614
▁금숙	-6615
▁금의	-6616
▁급히	-6617
▁기력	-6618
▁기물	-6619
▁기뻐	-6620
▁기어	-6621
▁기초	-6622
▁길에	-6623
▁길은	-6624
▁김재	-6625
▁김종	-6626
▁깃털	-6627
▁까는	-6628
▁까만	-6629
▁꽁치	-6630
▁꽤나	-6631
▁꿀도	-6632
▁꿀맛	-6633
▁꿀벌	-6634
▁끓는	-6635
▁끝내	-6636
▁끼어	-6637
▁나랑	-6638
▁나비	-6639
▁나설	-6640
▁나의	-6641
▁낚아	-6642
▁날개	-6643
▁날도	-6644
▁남들	-6645
▁남짓	-6646
▁낫다	-6647
▁낮아	-6648
▁낮에	-6649
▁낯설	-6650
▁내구	-6651
▁내며	-6652
▁내뿜	-6653
▁내외	-6654
▁낸다	-6655
▁냉큼	-6656
▁넓적	-6657
▁넘긴	-6658
▁넣지	-6659
▁네모	-6660
▁년간	-6661
▁년에	-6662
▁년의	-6663
▁노릇	-6664
▁논에	-6665
▁농약	-6666
▁농어	-6667
▁높게	-6668
▁높고	-6669
▁놓으	-6670
▁누룽	-6671
▁눈과	-6672
▁눈은	-6673
▁느끼	-6674
▁느린	-6675
▁늦출	-6676
▁다녔	-6677
▁다칠	-6678
▁단계	-6679
▁단순	-6680
▁달달	-6681
▁달에	-6682
▁달콤	-6683
▁닮아	-6684
▁담기	-6685
▁담을	-6686
▁당기	-6687
▁당한	-6688
▁대기	-6689
▁대우	-6690
▁대전	-6691
▁대중	-6692
▁대폭	-6693
▁댄다	-6694
▁더미	-6695
▁데이	-6696
▁도로	-6697
▁도우	-6698
▁도축	-6699
▁독사	-6700
▁독침	-6701
▁돈은	-6702
▁돌과	-6703
▁돌로	-6704
▁돌린	-6705
▁돌릴	-6706
▁돌미	-6707
▁돌솥	-6708
▁돕고	-6709
▁동영	-6710
▁동태	-6711
▁돼도	-6712
▁되겠	-6713
▁되죠	-6714
▁두근	-6715
▁두려	-6716
▁둬야	-6717
▁뒤를	-6718
▁뒤쪽	-6719
▁드셔	-6720
▁듣기	-6721
▁듣는	-6722
▁듣던	-6723
▁들었	-6724
▁등록	-6725
▁등에	-6726
▁따서	-6727
▁땅벌	-6728
▁땅콩	-6729
▁때에	-6730
▁떠난	-6731
▁뚫고	-6732
▁뚫는	-6733
▁뚫은	-6734
▁뜨거	-6735
▁뜨지	-6736
▁띤다	-6737
▁라고	-6738
▁라디	-6739
▁마냥	-6740
▁마라	-6741
▁마를	-6742
▁마사	-6743
▁막기	-6744
▁막막	-6745
▁만연	-6746
▁만점	-6747
▁만지	-6748
▁말까	-6749
▁말랐	-6750
▁맑게	-6751
▁맛과	-6752
▁망에	-6753
▁망을	-6754
▁맞닿	-6755
▁맞은	-6756
▁맡고	-6757
▁매듭	-6758
▁매운	-6759
▁맥이	-6760
▁맨손	-6761
▁머릿	-6762
▁면이	-6763
▁명의	-6764
▁명이	-6765
▁모란	-6766
▁모른	-6767
▁모인	-6768
▁목장	-6769
▁목적	-6770
▁목탁	-6771
▁몰고	-6772
▁몸과	-6773
▁몸은	-6774
▁무렵	-6775
▁무르	-6776
▁무릅	-6777
▁무얼	-6778
▁무척	-6779
▁묵묵	-6780
▁묵은	-6781
▁문화	-6782
▁물과	-6783
▁물때	-6784
▁물러	-6785
▁물은	-6786
▁뭐든	-6787
▁뭐해	-6788
▁미국	-6789
▁미루	-6790
▁미세	-6791
▁미연	-6792
▁믿고	-6793
▁밀고	-6794
▁밀리	-6795
▁바른	-6796
▁박수	-6797
▁박힌	-6798
▁반짝	-6799
▁받았	-6800
▁받을	-6801
▁발휘	-6802
▁밝은	-6803
▁밤에	-6804
▁밥은	-6805
▁방목	-6806
▁방사	-6807
▁배는	-6808
▁배부	-6809
▁배설	-6810
▁배의	-6811
▁백향	-6812
▁뱀을	-6813
▁뱀이	-6814
▁번은	-6815
▁범수	-6816
▁법재	-6817
▁베어	-6818
▁변해	-6819
▁보게	-6820
▁보낸	-6821
▁보냈	-6822
▁보리	-6823
▁보시	-6824
▁보아	-6825
▁보안	-6826
▁보온	-6827
▁복원	-6828
▁본인	-6829
▁봉투	-6830
▁봤다	-6831
▁봤을	-6832
▁부엌	-6833
▁부쩍	-6834
▁부화	-6835
▁불고	-6836
▁불기	-6837
▁붙는	-6838
▁비결	-6839
▁비타	-6840
▁빗을	-6841
▁빚은	-6842
▁빛과	-6843
▁빠지	-6844
▁뻗어	-6845
▁뼈에	-6846
▁뽑고	-6847
▁뿔이	-6848
▁사찰	-6849
▁사회	-6850
▁산업	-6851
▁삶는	-6852
▁삶을	-6853
▁삼겹	-6854
▁삼백	-6855
▁상상	-6856
▁상에	-6857
▁상진	-6858
▁상책	-6859
▁새길	-6860
▁새참	-6861
▁생강	-6862
▁서쪽	-6863
▁선사	-6864
▁선수	-6865
▁선호	-6866
▁설명	-6867
▁성우	-6868
▁성큼	-6869
▁성필	-6870
▁세로	-6871
▁세제	-6872
▁셰프	-6873
▁소독	-6874
▁소득	-6875
▁소라	-6876
▁소란	-6877
▁소소	-6878
▁소의	-6879
▁소통	-6880
▁소파	-6881
▁소홀	-6882
▁속마	-6883
▁속수	-6884
▁손녀	-6885
▁손상	-6886
▁손주	-6887
▁솔잎	-6888
▁솔직	-6889
▁송연	-6890
▁쇠로	-6891
▁쇳물	-6892
▁수리	-6893
▁수상	-6894
▁수색	-6895
▁수심	-6896
▁수익	-6897
▁수직	-6898
▁수컷	-6899
▁순기	-6900
▁순은	-6901
▁순이	-6902
▁숯이	-6903
▁숲을	-6904
▁숲이	-6905
▁쉬고	-6906
▁쉬면	-6907
▁쉽다	-6908
▁슈퍼	-6909
▁스승	-6910
▁시금	-6911
▁시내	-6912
▁시야	-6913
▁시켰	-6914
▁신의	-6915
▁신혼	-6916
▁싣는	-6917
▁실망	-6918
▁실이	-6919
▁심란	-6920
▁심장	-6921
▁싸울	-6922
▁씻는	-6923
▁아미	-6924
▁아홉	-6925
▁안의	-6926
▁안팎	-6927
▁알게	-6928
▁알콩	-6929
▁앞도	-6930
▁애를	-6931
▁애써	-6932
▁애지	-6933
▁야구	-6934
▁얇아	-6935
▁얘가	-6936
▁어땠	-6937
▁어릴	-6938
▁어림	-6939
▁어째	-6940
▁어창	-6941
▁얻어	-6942
▁에너	-6943
▁여긴	-6944
▁여느	-6945
▁여섯	-6946
▁여태	-6947
▁연기	-6948
▁연속	-6949
▁연아	-6950
▁연출	-6951
▁열고	-6952
▁열로	-6953
▁열이	-6954
▁열정	-6955
▁염료	-6956
▁영업	-6957
▁예쁜	-6958
▁오랫	-6959
▁오방	-6960
▁오신	-6961
▁오전	-6962
▁올린	-6963
▁올릴	-6964
▁옮기	-6965
▁옷이	-6966
▁와인	-6967
▁왔어	-6968
▁왕겨	-6969
▁왜요	-6970
▁외래	-6971
▁요청	-6972
▁용이	-6973
▁용택	-6974
▁우린	-6975
▁우와	-6976
▁울음	-6977
▁웃는	-6978
▁웃음	-6979
▁원동	-6980
▁원망	-6981
▁원을	-6982
▁원의	-6983
▁원활	-6984
▁위의	-6985
▁위함	-6986
▁유독	-6987
▁유럽	-6988
▁유명	-6989
▁유치	-6990
▁유해	-6991
▁육수	-6992
▁육중	-6993
▁윤종	-6994
▁은행	-6995
▁음미	-6996
▁이는	-6997
▁이따	-6998
▁이모	-6999
▁이물	-7000
▁이빨	-7001
▁이영	-7002
▁이중	-7003
▁이쪽	-7004
▁일거	-7005
▁일광	-7006
▁일교	-7007
▁일년	-7008
▁일로	-7009
▁일복	-7010
▁일사	-7011
▁일제	-7012
▁일직	-7013
▁일품	-7014
▁잃고	-7015
▁잃은	-7016
▁임무	-7017
▁입소	-7018
▁입은	-7019
▁있었	-7020
▁잊은	-7021
▁자극	-7022
▁자녀	-7023
▁자존	-7024
▁작두	-7025
▁작아	-7026
▁잔다	-7027
▁잠도	-7028
▁잠수	-7029
▁잡혀	-7030
▁잣송	-7031
▁장기	-7032
▁장대	-7033
▁장면	-7034
▁장작	-7035
▁장정	-7036
▁재벌	-7037
▁재생	-7038
▁재킷	-7039
▁저러	-7040
▁적게	-7041
▁적고	-7042
▁적응	-7043
▁적이	-7044
▁적절	-7045
▁적지	-7046
▁적혀	-7047
▁전국	-7048
▁전동	-7049
▁전만	-7050
▁점기	-7051
▁접근	-7052
▁접수	-7053
▁정부	-7054
▁정숙	-7055
▁정씨	-7056
▁정제	-7057
▁젖을	-7058
▁조급	-7059
▁조명	-7060
▁조상	-7061
▁조선	-7062
▁조직	-7063
▁좁은	-7064
▁좋죠	-7065
▁주워	-7066
▁주위	-7067
▁주저	-7068
▁죽고	-7069
▁죽는	-7070
▁죽지	-7071
▁줄도	-7072
▁줄에	-7073
▁중장	-7074
▁즉시	-7075
▁즐기	-7076
▁지날	-7077
▁지냈	-7078
▁지니	-7079
▁지대	-7080
▁지루	-7081
▁지리	-7082
▁지원	-7083
▁지팡	-7084
▁직장	-7085
▁직후	-7086
▁짊어	-7087
▁쪄낸	-7088
▁쫓아	-7089
▁찍을	-7090
▁찔러	-7091
▁착잡	-7092
▁참고	-7093
▁참아	-7094
▁찾지	-7095
▁채윤	-7096
▁챙긴	-7097
▁챙길	-7098
▁처리	-7099
▁척이	-7100
▁척트	-7101
▁천직	-7102
▁천창	-7103
▁초대	-7104
▁촘촘	-7105
▁총을	-7106
▁추가	-7107
▁축사	-7108
▁축제	-7109
▁출하	-7110
▁충족	-7111
▁치고	-7112
▁치는	-7113
▁치른	-7114
▁치면	-7115
▁치의	-7116
▁친한	-7117
▁침범	-7118
▁침투	-7119
▁칭찬	-7120
▁칼이	-7121
▁캐도	-7122
▁캐러	-7123
▁캐서	-7124
▁캐야	-7125
▁탈출	-7126
▁탓에	-7127
▁터진	-7128
▁털을	-7129
▁털이	-7130
▁텃밭	-7131
▁테두	-7132
▁퇴근	-7133
▁투명	-7134
▁퉁퉁	-7135
▁특권	-7136
▁특허	-7137
▁틈도	-7138
▁파낸	-7139
▁파서	-7140
▁파야	-7141
▁판단	-7142
▁팔이	-7143
▁편치	-7144
▁평가	-7145
▁평범	-7146
▁평평	-7147
▁폐기	-7148
▁포대	-7149
▁풀숲	-7150
▁풀을	-7151
▁품질	-7152
▁프로	-7153
▁피는	-7154
▁피를	-7155
▁하도	-7156
▁하러	-7157
▁하려	-7158
▁하용	-7159
▁학원	-7160
▁한순	-7161
▁할지	-7162
▁합쳐	-7163
▁항구	-7164
▁항해	-7165
▁해안	-7166
▁햇살	-7167
▁향을	-7168
▁허가	-7169
▁헬리	-7170
▁혈압	-7171
▁호수	-7172
▁호텔	-7173
▁혹은	-7174
▁홍보	-7175
▁홍필	-7176
▁화폐	-7177
▁환자	-7178
▁활발	-7179
▁황태	-7180
▁회관	-7181
▁회를	-7182
▁횟집	-7183
▁후에	-7184
▁훈장	-7185
▁휘청	-7186
▁흐름	-7187
▁흑산	-7188
▁흙에	-7189
▁힘에	-7190
가루를	-7191
가이다	-7192
가지가	-7193
간만에	-7194
강한다	-7195
것으로	-7196
기들을	-7197
기보다	-7198
기에서	-7199
까지만	-7200
께서는	-7201
꾼들이	-7202
끈하게	-7203
납니다	-7204
년동안	-7205
느러미	-7206
다닌다	-7207
달라는	-7208
대에서	-7209
도까지	-7210
도이다	-7211
되거나	-7212
되어야	-7213
드리고	-7214
들에겐	-7215
때마다	-7216
라우드	-7217
란하게	-7218
러워요	-7219
로움을	-7220
면에서	-7221
목이라	-7222
물들이	-7223
미터의	-7224
민들이	-7225
바닥에	-7226
바야르	-7227
밥이다	-7228
밭이다	-7229
법으로	-7230
보니까	-7231
보다도	-7232
부모님	-7233
분들은	-7234
뿌리가	-7235
사고로	-7236
사에서	-7237
성분이	-7238
셨으면	-7239
수씨는	-7240
스러울	-7241
스러워	-7242
시간은	-7243
시고요	-7244
실에서	-7245
씨에게	-7246
양으로	-7247
어나온	-7248
어서는	-7249
어서야	-7250
어진다	-7251
었더니	-7252
었으니	-7253
원으로	-7254
원하는	-7255
월부터	-7256
웠어요	-7257
유리를	-7258
으라고	-7259
이고요	-7260
이기도	-7261
이기에	-7262
인데도	-7263
일수록	-7264
작업에	-7265
작업은	-7266
주려고	-7267
주세요	-7268
줘야만	-7269
쪽에서	-7270
쳤어요	-7271
칩니다	-7272
티미터	-7273
하자고	-7274
하지마	-7275
한다면	-7276
해야만	-7277
해야지	-7278
해있다	-7279
해져요	-7280
해지면	-7281
했는지	-7282
했으니	-7283
,201	-7284
▁300	-7285
▁700	-7286
▁7~8	-7287
▁가격도	-7288
▁가격에	-7289
▁가격을	-7290
▁가까워	-7291
▁가늠할	-7292
▁가능할	-7293
▁가루로	-7294
▁가리지	-7295
▁가마의	-7296
▁가면서	-7297
▁가상의	-7298
▁가상이	-7299
▁가오리	-7300
▁가져오	-7301
▁가족과	-7302
▁가죽에	-7303
▁가지게	-7304
▁가지나	-7305
▁가하는	-7306
▁가한다	-7307
▁각각의	-7308
▁간다고	-7309
▁갈등이	-7310
▁갈아야	-7311
▁갈치가	-7312
▁감태를	-7313
▁값비싼	-7314
▁강공순	-7315
▁강하다	-7316
▁갖춰야	-7317
▁같으면	-7318
▁거기서	-7319
▁거들어	-7320
▁거라서	-7321
▁거리를	-7322
▁거치게	-7323
▁걱정도	-7324
▁걱정을	-7325
▁건넨다	-7326
▁건조를	-7327
▁것인가	-7328
▁겉으로	-7329
▁게르는	-7330
▁겨울이	-7331
▁결과가	-7332
▁결과는	-7333
▁결혼을	-7334
▁경력만	-7335
▁경매를	-7336
▁경험이	-7337
▁고기의	-7338
▁고도의	-7339
▁고통을	-7340
▁곤드레	-7341
▁공간을	-7342
▁과거의	-7343
▁관리는	-7344
▁관절염	-7345
▁광택이	-7346
▁괜찮아	-7347
▁교실은	-7348
▁구리로	-7349
▁구분이	-7350
▁구안와	-7351
▁구워진	-7352
▁국내산	-7353
▁그것은	-7354
▁그녀가	-7355
▁그다지	-7356
▁그런가	-7357
▁그런지	-7358
▁그릇의	-7359
▁그물은	-7360
▁근처에	-7361
▁글씨를	-7362
▁금고에	-7363
▁금고의	-7364
▁금괴를	-7365
▁기다렸	-7366
▁기록된	-7367
▁기름의	-7368
▁기술을	-7369
▁기회가	-7370
▁김복수	-7371
▁꽁치는	-7372
▁꽃가루	-7373
▁꽃게가	-7374
▁꽃게는	-7375
▁꿈꾸는	-7376
▁끊어져	-7377
▁끊어진	-7378
▁끓이면	-7379
▁끓인다	-7380
▁끝나는	-7381
▁끝나면	-7382
▁끝난다	-7383
▁끼우는	-7384
▁나가요	-7385
▁나무다	-7386
▁나서서	-7387
▁나오지	-7388
▁나와야	-7389
▁나왔어	-7390
▁나이는	-7391
▁나이에	-7392
▁날아가	-7393
▁날에는	-7394
▁남겨진	-7395
▁남자는	-7396
▁낭충봉	-7397
▁내려온	-7398
▁내려올	-7399
▁내려왔	-7400
▁내렸다	-7401
▁내리지	-7402
▁냄새를	-7403
▁냅니다	-7404
▁냉장고	-7405
▁넘도록	-7406
▁넘어질	-7407
▁녀석은	-7408
▁년이다	-7409
▁노력의	-7410
▁녹이는	-7411
▁농부가	-7412
▁농부는	-7413
▁농사가	-7414
▁농사도	-7415
▁농사짓	-7416
▁농장의	-7417
▁농장이	-7418
▁높다고	-7419
▁높이는	-7420
▁놓아야	-7421
▁놓았다	-7422
▁놓치면	-7423
▁놔두면	-7424
▁누에를	-7425
▁누워있	-7426
▁눈물이	-7427
▁늑대가	-7428
▁늑대몰	-7429
▁늑대의	-7430
▁늘어난	-7431
▁다급히	-7432
▁다녀온	-7433
▁단맛이	-7434
▁단백질	-7435
▁달리는	-7436
▁담그는	-7437
▁담백한	-7438
▁답답해	-7439
▁당당히	-7440
▁당시에	-7441
▁당연히	-7442
▁당황한	-7443
▁대대로	-7444
▁대비해	-7445
▁대신해	-7446
▁대통령	-7447
▁더운데	-7448
▁더워서	-7449
▁덩달아	-7450
▁데에는	-7451
▁도구로	-7452
▁도루묵	-7453
▁도망가	-7454
▁도맡아	-7455
▁독소를	-7456
▁독활을	-7457
▁돌들을	-7458
▁돌린다	-7459
▁돌아서	-7460
▁돌아와	-7461
▁동네에	-7462
▁동원해	-7463
▁동혁씨	-7464
▁됐는데	-7465
▁되니까	-7466
▁된장에	-7467
▁드라이	-7468
▁드러나	-7469
▁들리는	-7470
▁들린다	-7471
▁들어도	-7472
▁들어선	-7473
▁들어주	-7474
▁들인다	-7475
▁등으로	-7476
▁디자인	-7477
▁딸기가	-7478
▁딸기는	-7479
▁땄는데	-7480
▁때처럼	-7481
▁떠나지	-7482
▁떨어뜨	-7483
▁뜨겁게	-7484
▁라면을	-7485
▁마누라	-7486
▁마시는	-7487
▁막는다	-7488
▁막대를	-7489
▁막아야	-7490
▁만들다	-7491
▁만들면	-7492
▁만들지	-7493
▁만선을	-7494
▁만큼은	-7495
▁많게는	-7496
▁많은데	-7497
▁많지는	-7498
▁말려서	-7499
▁말리고	-7500
▁말벌은	-7501
▁말벌이	-7502
▁말씀을	-7503
▁맛이다	-7504
▁망치로	-7505
▁망치를	-7506
▁맞는다	-7507
▁맞아야	-7508
▁맞았다	-7509
▁맞으면	-7510
▁맞을까	-7511
▁맞추기	-7512
▁맡긴다	-7513
▁맴도는	-7514
▁먹기도	-7515
▁먹었어	-7516
▁먼바다	-7517
▁메주를	-7518
▁모두가	-7519
▁모래를	-7520
▁모습에	-7521
▁모여서	-7522
▁모자가	-7523
▁목청은	-7524
▁몫이다	-7525
▁몸으로	-7526
▁몸통을	-7527
▁못해요	-7528
▁무게만	-7529
▁무기가	-7530
▁무너져	-7531
▁무리가	-7532
▁무리를	-7533
▁무서워	-7534
▁무심한	-7535
▁문양이	-7536
▁물기가	-7537
▁물리면	-7538
▁뭐라고	-7539
▁뭐예요	-7540
▁뭔가가	-7541
▁미끄럽	-7542
▁미나리	-7543
▁미래를	-7544
▁미사오	-7545
▁민어를	-7546
▁밑그림	-7547
▁바느질	-7548
▁바람에	-7549
▁바지락	-7550
▁박건영	-7551
▁박동인	-7552
▁반나절	-7553
▁반대로	-7554
▁반응에	-7555
▁밤나무	-7556
▁밥솥에	-7557
▁밭이다	-7558
▁밭일을	-7559
▁배수가	-7560
▁배우고	-7561
▁배웠다	-7562
▁뱃사람	-7563
▁버리면	-7564
▁벌들은	-7565
▁벌려고	-7566
▁벌리고	-7567
▁벌이는	-7568
▁벌집에	-7569
▁벌통이	-7570
▁베란다	-7571
▁변했다	-7572
▁별다른	-7573
▁보내고	-7574
▁보람을	-7575
▁보람이	-7576
▁보면서	-7577
▁보물이	-7578
▁보석은	-7579
▁보이고	-7580
▁보충해	-7581
▁복어의	-7582
▁복잡할	-7583
▁부러질	-7584
▁부르고	-7585
▁부른다	-7586
▁부위는	-7587
▁부자는	-7588
▁부표를	-7589
▁분만실	-7590
▁분위기	-7591
▁분홍색	-7592
▁불가능	-7593
▁불도저	-7594
▁불린다	-7595
▁불빛이	-7596
▁불포화	-7597
▁붙어서	-7598
▁붙이고	-7599
▁붙인다	-7600
▁비교적	-7601
▁비롯해	-7602
▁비료를	-7603
▁비바람	-7604
▁비율로	-7605
▁비율을	-7606
▁비해서	-7607
▁빚어낸	-7608
▁빠르다	-7609
▁빠지는	-7610
▁빠지지	-7611
▁빨라요	-7612
▁빨아들	-7613
▁뻔하다	-7614
▁사고는	-7615
▁사라져	-7616
▁사랑은	-7617
▁사랑을	-7618
▁사로잡	-7619
▁사용한	-7620
▁사이가	-7621
▁사이즈	-7622
▁사투를	-7623
▁산마는	-7624
▁산마를	-7625
▁살리고	-7626
▁살아갈	-7627
▁살아온	-7628
▁살아요	-7629
▁삶아진	-7630
▁상관없	-7631
▁상처는	-7632
▁상태의	-7633
▁새끼를	-7634
▁색다른	-7635
▁생각도	-7636
▁생각에	-7637
▁생겼다	-7638
▁생계를	-7639
▁생선을	-7640
▁생소한	-7641
▁서로의	-7642
▁서울로	-7643
▁석이를	-7644
▁섞어서	-7645
▁섞이게	-7646
▁선장은	-7647
▁선장이	-7648
▁성게는	-7649
▁성공적	-7650
▁성분은	-7651
▁성질을	-7652
▁세척을	-7653
▁소가죽	-7654
▁소금광	-7655
▁소금이	-7656
▁소중한	-7657
▁속으로	-7658
▁손님을	-7659
▁송진이	-7660
▁수액의	-7661
▁수포로	-7662
▁숙성을	-7663
▁순순히	-7664
▁숭어가	-7665
▁숭어를	-7666
▁숯구이	-7667
▁쉬세요	-7668
▁쉬어야	-7669
▁습관이	-7670
▁습성이	-7671
▁시간과	-7672
▁시간만	-7673
▁시계는	-7674
▁시대가	-7675
▁시작된	-7676
▁시작했	-7677
▁시장에	-7678
▁시켜서	-7679
▁시키고	-7680
▁시키면	-7681
▁시킨다	-7682
▁식당을	-7683
▁식물은	-7684
▁식탁에	-7685
▁신고가	-7686
▁신비를	-7687
▁신비의	-7688
▁실수가	-7689
▁실패를	-7690
▁심하게	-7691
▁싶더니	-7692
▁싶었다	-7693
▁싶으면	-7694
▁싸우는	-7695
▁쓰러지	-7696
▁쓰레기	-7697
▁쓰려는	-7698
▁쓴맛이	-7699
▁씨에게	-7700
▁씹히는	-7701
▁씻는다	-7702
▁아가미	-7703
▁아궁이	-7704
▁아닌가	-7705
▁아닌지	-7706
▁아들만	-7707
▁아름답	-7708
▁아무런	-7709
▁아쉬운	-7710
▁아파트	-7711
▁아프고	-7712
▁아프니	-7713
▁안쓰럽	-7714
▁안전한	-7715
▁안정을	-7716
▁안타까	-7717
▁안하고	-7718
▁않았던	-7719
▁알았어	-7720
▁앞바다	-7721
▁앞선다	-7722
▁앞에는	-7723
▁야간에	-7724
▁약성도	-7725
▁약재가	-7726
▁약초다	-7727
▁약효가	-7728
▁약효를	-7729
▁양파를	-7730
▁어디를	-7731
▁어렵지	-7732
▁어우러	-7733
▁언니의	-7734
▁언제나	-7735
▁얼굴로	-7736
▁얼어붙	-7737
▁엄마다	-7738
▁엄마랑	-7739
▁없는데	-7740
▁없어야	-7741
▁여기도	-7742
▁여기로	-7743
▁여기저	-7744
▁여념이	-7745
▁여름에	-7746
▁여유가	-7747
▁연기가	-7748
▁연수목	-7749
▁연옥을	-7750
▁열기가	-7751
▁열기로	-7752
▁열매가	-7753
▁열매는	-7754
▁염분이	-7755
▁염색을	-7756
▁염소의	-7757
▁예리한	-7758
▁예상치	-7759
▁예술작	-7760
▁예전에	-7761
▁예측할	-7762
▁오로지	-7763
▁오르면	-7764
▁오빠가	-7765
▁오빠는	-7766
▁오소리	-7767
▁오장을	-7768
▁오차도	-7769
▁오키나	-7770
▁올라야	-7771
▁올라온	-7772
▁올라올	-7773
▁올려야	-7774
▁올해로	-7775
▁옻나무	-7776
▁와이프	-7777
▁완성됐	-7778
▁완성이	-7779
▁요란한	-7780
▁요리가	-7781
▁요새는	-7782
▁욕심을	-7783
▁우랑탕	-7784
▁우러나	-7785
▁움직이	-7786
▁웃으며	-7787
▁웃음이	-7788
▁원단이	-7789
▁원석을	-7790
▁원숭이	-7791
▁원액을	-7792
▁원으로	-7793
▁위험할	-7794
▁유리가	-7795
▁유리는	-7796
▁유리로	-7797
▁유리에	-7798
▁유유자	-7799
▁유유히	-7800
▁유일한	-7801
▁음식도	-7802
▁의미를	-7803
▁의지해	-7804
▁이거를	-7805
▁이곳을	-7806
▁이곳의	-7807
▁이동한	-7808
▁이라고	-7809
▁이러고	-7810
▁이로운	-7811
▁이르는	-7812
▁이만큼	-7813
▁이맘때	-7814
▁이상은	-7815
▁이상한	-7816
▁이어질	-7817
▁이웃이	-7818
▁이장님	-7819
▁이점금	-7820
▁인기척	-7821
▁인삼은	-7822
▁인삼의	-7823
▁인생은	-7824
▁인생이	-7825
▁인정을	-7826
▁일손이	-7827
▁일어날	-7828
▁일했다	-7829
▁잃어버	-7830
▁입자의	-7831
▁있다가	-7832
▁있다면	-7833
▁자라가	-7834
▁자라지	-7835
▁자리잡	-7836
▁자리한	-7837
▁자연과	-7838
▁자전거	-7839
▁작년에	-7840
▁작물을	-7841
▁잔대는	-7842
▁잘라낸	-7843
▁잘해서	-7844
▁잡는다	-7845
▁잡아야	-7846
▁잡으러	-7847
▁잡히면	-7848
▁장대를	-7849
▁장소를	-7850
▁장어가	-7851
▁재래시	-7852
▁재미로	-7853
▁저기에	-7854
▁저녁이	-7855
▁저물어	-7856
▁저절로	-7857
▁저희도	-7858
▁적어서	-7859
▁전까지	-7860
▁전부다	-7861
▁전설의	-7862
▁전쟁을	-7863
▁전통의	-7864
▁전한다	-7865
▁절구에	-7866
▁절구의	-7867
▁접착제	-7868
▁젓가락	-7869
▁정도나	-7870
▁정리를	-7871
▁정상에	-7872
▁정성껏	-7873
▁정해진	-7874
▁제거해	-7875
▁제자가	-7876
▁제주도	-7877
▁조각이	-7878
▁조그만	-7879
▁조기가	-7880
▁조절을	-7881
▁종이를	-7882
▁종이에	-7883
▁좋아질	-7884
▁좋았던	-7885
▁좋으면	-7886
▁좋으신	-7887
▁좋지만	-7888
▁주방에	-7889
▁주변을	-7890
▁주변의	-7891
▁주시기	-7892
▁주었다	-7893
▁주위를	-7894
▁주인을	-7895
▁죽는다	-7896
▁줄기는	-7897
▁중량이	-7898
▁지나갈	-7899
▁지난해	-7900
▁지네가	-7901
▁지쳤다	-7902
▁지폐를	-7903
▁진귀한	-7904
▁진료를	-7905
▁찍어내	-7906
▁찍어낸	-7907
▁차려야	-7908
▁참기름	-7909
▁채취가	-7910
▁챙겨야	-7911
▁척박한	-7912
▁천적이	-7913
▁철저한	-7914
▁초겨울	-7915
▁최근성	-7916
▁최적의	-7917
▁출산을	-7918
▁치료를	-7919
▁치열한	-7920
▁칼집을	-7921
▁캐다가	-7922
▁캐비아	-7923
▁컴퓨터	-7924
▁콜레스	-7925
▁크기는	-7926
▁크기를	-7927
▁타조는	-7928
▁타조알	-7929
▁타조의	-7930
▁탄생한	-7931
▁탐침봉	-7932
▁테이프	-7933
▁톱날이	-7934
▁특성상	-7935
▁특유의	-7936
▁파본다	-7937
▁팔뚝만	-7938
▁팔순이	-7939
▁편이다	-7940
▁편하고	-7941
▁편하다	-7942
▁펼친다	-7943
▁평생을	-7944
▁포인트	-7945
▁표면을	-7946
▁표정을	-7947
▁품질이	-7948
▁풍부해	-7949
▁프레스	-7950
▁피해를	-7951
▁필요할	-7952
▁하고싶	-7953
▁하늘에	-7954
▁하라는	-7955
▁하루도	-7956
▁하시는	-7957
▁하신다	-7958
▁하역사	-7959
▁하영호	-7960
▁하자니	-7961
▁하지말	-7962
▁한가득	-7963
▁한숨이	-7964
▁한참을	-7965
▁함량이	-7966
▁해마를	-7967
▁해보고	-7968
▁해보는	-7969
▁해봐야	-7970
▁해산물	-7971
▁해야만	-7972
▁해왔던	-7973
▁햇볕에	-7974
▁했으면	-7975
▁향긋한	-7976
▁형태로	-7977
▁호두는	-7978
▁호장근	-7979
▁홍게가	-7980
▁홍합은	-7981
▁홍합이	-7982
▁화사한	-7983
▁화상을	-7984
▁확인해	-7985
▁환자가	-7986
▁후회가	-7987
▁휘어진	-7988
▁흡수가	-7989
▁희망을	-7990
▁흰색의	-7991
▁힘겹게	-7992
▁힘든데	-7993
년입니다	-7994
들어가는	-7995
리잖아요	-7996
만으로도	-7997
봐야겠다	-7998
부들에게	-7999
으셨어요	-8000
재입니다	-8001
적입니다	-8002
쳤습니다	-8003
하기까지	-8004
하기에는	-8005
하잖아요	-8006
해주세요	-8007
해집니다	-8008
▁1300	-8009
▁가느다란	-8010
▁가능성이	-8011
▁가래나무	-8012
▁가방에서	-8013
▁가족들이	-8014
▁거푸집에	-8015
▁걱정하는	-8016
▁건조하는	-8017
▁걸린다고	-8018
▁겨우살이	-8019
▁경상북도	-8020
▁경옥고를	-8021
▁계속되는	-8022
▁고등어와	-8023
▁고추밭에	-8024
▁곡괭이에	-8025
▁골동품을	-8026
▁골쇄보가	-8027
▁골쇄보는	-8028
▁골쇄보다	-8029
▁공장으로	-8030
▁공정에서	-8031
▁광부들은	-8032
▁광훈씨는	-8033
▁군락지를	-8034
▁그날그날	-8035
▁그러는데	-8036
▁그렇기에	-8037
▁그렇지만	-8038
▁그사이에	-8039
▁근해에서	-8040
▁기다린다	-8041
▁기본적인	-8042
▁깊어진다	-8043
▁까치버섯	-8044
▁꼼꼼하게	-8045
▁꾸지뽕을	-8046
▁끌어올린	-8047
▁나무토막	-8048
▁나왔는데	-8049
▁나타났다	-8050
▁나한테는	-8051
▁낚싯바늘	-8052
▁남아있다	-8053
▁내려왔다	-8054
▁넣어주는	-8055
▁늦게까지	-8056
▁다듬는다	-8057
▁다행히도	-8058
▁단단하게	-8059
▁달려가는	-8060
▁달려온다	-8061
▁답답하고	-8062
▁대리석은	-8063
▁대신한다	-8064
▁덩어리가	-8065
▁도시에서	-8066
▁도와주는	-8067
▁도와주러	-8068
▁돌미역을	-8069
▁돌아오는	-8070
▁돌입한다	-8071
▁동그랗게	-8072
▁둘러싸인	-8073
▁드러내는	-8074
▁들어가도	-8075
▁들어가지	-8076
▁들어와서	-8077
▁떨어져요	-8078
▁떨어졌다	-8079
▁떨어지고	-8080
▁떨어지는	-8081
▁떼어내는	-8082
▁떼어내야	-8083
▁뚝배기에	-8084
▁마음대로	-8085
▁마음이다	-8086
▁마지막에	-8087
▁만나본다	-8088
▁만들기에	-8089
▁만들어야	-8090
▁만족스럽	-8091
▁말똥성게	-8092
▁말이라면	-8093
▁말이에요	-8094
▁먹으려고	-8095
▁며느리와	-8096
▁모릅니다	-8097
▁몰려드는	-8098
▁문제라도	-8099
▁묻어둔다	-8100
▁물고기는	-8101
▁물고기를	-8102
▁물메기는	-8103
▁미끄러져	-8104
▁미안해서	-8105
▁미안했다	-8106
▁바구니를	-8107
▁바구니에	-8108
▁바다일을	-8109
▁바둑판을	-8110
▁바빠지는	-8111
▁바윗굴을	-8112
▁반찬으로	-8113
▁발생하는	-8114
▁밥상이다	-8115
▁번거로운	-8116
▁보이는데	-8117
▁부모님의	-8118
▁분명하다	-8119
▁불순물이	-8120
▁붉은색을	-8121
▁빠져나간	-8122
▁빨리빨리	-8123
▁사라졌다	-8124
▁사라진다	-8125
▁사람에게	-8126
▁사람이다	-8127
▁사랑하는	-8128
▁사방으로	-8129
▁사용하고	-8130
▁사포질을	-8131
▁산비탈을	-8132
▁살아왔다	-8133
▁살았는데	-8134
▁살았으면	-8135
▁상태이다	-8136
▁상품성이	-8137
▁상황에서	-8138
▁생각보다	-8139
▁생각해요	-8140
▁생깁니다	-8141
▁생산량의	-8142
▁서까래를	-8143
▁서운하다	-8144
▁선명하다	-8145
▁선원들도	-8146
▁선원들을	-8147
▁섬더덕을	-8148
▁세상에서	-8149
▁세심하게	-8150
▁소나무로	-8151
▁소소하게	-8152
▁속수무책	-8153
▁손꼽힌다	-8154
▁수천만원	-8155
▁순간까지	-8156
▁순자씨는	-8157
▁숨어있다	-8158
▁스트레스	-8159
▁시골에서	-8160
▁시작되고	-8161
▁시키려고	-8162
▁식구들이	-8163
▁심기일전	-8164
▁아니라면	-8165
▁아들한테	-8166
▁아무렇지	-8167
▁아미노산	-8168
▁아버지랑	-8169
▁아이디어	-8170
▁안됩니다	-8171
▁안정적인	-8172
▁않는다고	-8173
▁않았어요	-8174
▁알콩달콩	-8175
▁애지중지	-8176
▁얘기하는	-8177
▁어디에도	-8178
▁어떠세요	-8179
▁어머니다	-8180
▁언제까지	-8181
▁없어서는	-8182
▁여기다가	-8183
▁여기에는	-8184
▁여기에도	-8185
▁여기에서	-8186
▁여러가지	-8187
▁연결해야	-8188
▁연구개발	-8189
▁영양분이	-8190
▁예민해진	-8191
▁예전에는	-8192
▁오랫동안	-8193
▁오셨어요	-8194
▁온도에서	-8195
▁올라가기	-8196
▁올라가면	-8197
▁올립니다	-8198
▁완벽하게	-8199
▁우도에서	-8200
▁울타리를	-8201
▁움직인다	-8202
▁움직임이	-8203
▁위함이다	-8204
▁위험하다	-8205
▁위협하는	-8206
▁유리공이	-8207
▁유리물을	-8208
▁음식이다	-8209
▁이것저것	-8210
▁이곳에는	-8211
▁이곳으로	-8212
▁이동한다	-8213
▁이용한다	-8214
▁이유라도	-8215
▁이정씨의	-8216
▁이쪽으로	-8217
▁익어가는	-8218
▁익었는지	-8219
▁인간에게	-8220
▁일반적인	-8221
▁일어나는	-8222
▁일엽초를	-8223
▁일이지만	-8224
▁일주일에	-8225
▁있는데요	-8226
▁자생하는	-8227
▁자식들도	-8228
▁자연에서	-8229
▁자연으로	-8230
▁자유롭게	-8231
▁자체로도	-8232
▁작업이기	-8233
▁작업자의	-8234
▁잘라내고	-8235
▁잘못해서	-8236
▁잣송이가	-8237
▁장수씨는	-8238
▁장인이다	-8239
▁전라북도	-8240
▁전문가의	-8241
▁절벽에서	-8242
▁절벽으로	-8243
▁접착제로	-8244
▁정리하는	-8245
▁정리한다	-8246
▁정아씨는	-8247
▁정확하게	-8248
▁조각칼을	-8249
▁조심해서	-8250
▁조절하는	-8251
▁좋아해요	-8252
▁주방에서	-8253
▁주전자를	-8254
▁주전자의	-8255
▁준비하고	-8256
▁중심으로	-8257
▁중입니다	-8258
▁지나간다	-8259
▁지느러미	-8260
▁지켜보는	-8261
▁직원들은	-8262
▁집사람은	-8263
▁집어넣으	-8264
▁집중력이	-8265
▁찌꺼기가	-8266
▁찍어내는	-8267
▁차례대로	-8268
▁차례이다	-8269
▁참나무가	-8270
▁참다랑어	-8271
▁찾아내는	-8272
▁채취한다	-8273
▁책임져야	-8274
▁처음부터	-8275
▁철광석을	-8276
▁충청남도	-8277
▁크기별로	-8278
▁클라우드	-8279
▁태어났다	-8280
▁토사자가	-8281
▁토종벌의	-8282
▁토종벌통	-8283
▁튼튼하게	-8284
▁편백나무	-8285
▁펼쳐진다	-8286
▁포장하는	-8287
▁필수이다	-8288
▁하겠다고	-8289
▁하루에도	-8290
▁하면서도	-8291
▁할머니다	-8292
▁허용하지	-8293
▁황금색을	-8294
▁힘들다는	-8295
되었습니다	-8296
▁1,200	-8297
▁가능합니다	-8298
▁가득합니다	-8299
▁가래나무는	-8300
▁갑작스럽게	-8301
▁걱정스러운	-8302
▁걱정하지마	-8303
▁걸려가지고	-8304
▁게르마늄이	-8305
▁교통사고로	-8306
▁그랬습니다	-8307
▁긴장됩니다	-8308
▁끌어올리는	-8309
▁나뭇가지에	-8310
▁나오잖아요	-8311
▁농장주인이	-8312
▁누군가에겐	-8313
▁동의보감에	-8314
▁들어가니까	-8315
▁들어가세요	-8316
▁들어갑니다	-8317
▁마지막으로	-8318
▁만들어낸다	-8319
▁맛있습니다	-8320
▁며느리에게	-8321
▁며느리한테	-8322
▁불어넣는다	-8323
▁불포화지방	-8324
▁사용합니다	-8325
▁생명력으로	-8326
▁선원들에겐	-8327
▁성공적으로	-8328
▁소비자들이	-8329
▁스트레스를	-8330
▁시작되었다	-8331
▁어쩌겠는가	-8332
▁억척스럽게	-8333
▁오동나무를	-8334
▁오래간만에	-8335
▁올라갑니다	-8336
▁우리나라의	-8337
▁움직여본다	-8338
▁이렇게까지	-8339
▁일반적으로	-8340
▁자연스럽게	-8341
▁자작나무는	-8342
▁작업이에요	-8343
▁좋겠습니다	-8344
▁좋아하니까	-8345
▁준비되었다	-8346
▁줄어들었다	-8347
▁찔레버섯을	-8348
▁차가꾼들은	-8349
▁척트바야르	-8350
▁콜레스테롤	-8351
▁탁월하다고	-8352
▁토종벌들이	-8353
▁노랑가오리는	-8354
▁소금광산에서	-8355
▁우리나라에서	-8356
▁인스타그램에	-8357
▁차가버섯이다	-8358
▁할머니들에게	-8359
30	-8360
50	-8361
80	-8362
KM	-8363
hi	-8364
si	-8365
~2	-8366
~5	-8367
▁객	-8368
▁꼴	-8369
▁돔	-8370
▁됩	-8371
▁듬	-8372
▁딛	-8373
▁떡	-8374
▁레	-8375
▁류	-8376
▁맏	-8377
▁맘	-8378
▁뭍	-8379
▁볕	-8380
▁뽕	-8381
▁뾰	-8382
▁셀	-8383
▁솎	-8384
▁쎄	-8385
▁씌	-8386
▁앗	-8387
▁윷	-8388
▁잿	-8389
▁쟤	-8390
▁쭉	-8391
▁쯤	-8392
▁찐	-8393
▁찹	-8394
▁컸	-8395
▁케	-8396
▁쾌	-8397
▁텅	-8398
▁톳	-8399
▁눕	-8400
▁춤	-8401
▁툭	-8402
▁튕	-8403
▁펄	-8404
▁페	-8405
▁펜	-8406
▁푼	-8407
▁플	-8408
▁헹	-8409
▁협	-8410
▁획	-8411
▁흩	-8412
가게	-8413
가상	-8414
간이	-8415
간힘	-8416
갇혀	-8417
갈이	-8418
강이	-8419
개는	-8420
개에	-8421
갯짓	-8422
거에	-8423
건만	-8424
건을	-8425
걸까	-8426
걸음	-8427
걸이	-8428
것이	-8429
겠나	-8430
겨야	-8431
겨져	-8432
격전	-8433
경관	-8434
경력	-8435
계도	-8436
계로	-8437
고기	-8438
공은	-8439
공장	-8440
공품	-8441
과도	-8442
과정	-8443
괴가	-8444
구만	-8445
구요	-8446
구포	-8447
군이	-8448
균이	-8449
그라	-8450
그래	-8451
근한	-8452
금화	-8453
급이	-8454
기들	-8455
기술	-8456
기스	-8457
길에	-8458
김에	-8459
김치	-8460
깝다	-8461
깬다	-8462
껍질	-8463
껴서	-8464
꽃의	-8465
나뭇	-8466
나버	-8467
난을	-8468
남아	-8469
남이	-8470
내가	-8471
내서	-8472
내자	-8473
넣기	-8474
네랄	-8475
년차	-8476
녔다	-8477
농사	-8478
놓기	-8479
느릿	-8480
늬를	-8481
다툼	-8482
대떡	-8483
대만	-8484
대왕	-8485
더를	-8486
더미	-8487
덕이	-8488
덕환	-8489
덤불	-8490
데에	-8491
도네	-8492
독이	-8493
돼서	-8494
돼요	-8495
됐을	-8496
되다	-8497
되던	-8498
되요	-8499
▁닳	-8500
▁닻	-8501
▁샀	-8502
▁쏜	-8503
▁쿠	-8504
갱이	-8505
게도	-8506
기치	-8507
년전	-8508
님의	-8509
달픈	-8510
두가	-8511
두렁	-8512
둥에	-8513
드가	-8514
들기	-8515
들여	-8516
등급	-8517
등의	-8518
디브	-8519
똥이	-8520
뚝뚝	-8521
뜬히	-8522
라다	-8523
라스	-8524
라지	-8525
락에	-8526
래요	-8527
레이	-8528
려한	-8529
로드	-8530
로의	-8531
론을	-8532
룩이	-8533
류의	-8534
률도	-8535
륭한	-8536
름의	-8537
리도	-8538
리자	-8539
리핀	-8540
립공	-8541
마는	-8542
마어	-8543
마침	-8544
막에	-8545
만별	-8546
맛을	-8547
맡은	-8548
맣고	-8549
매불	-8550
먹은	-8551
멩이	-8552
면은	-8553
모가	-8554
목에	-8555
못해	-8556
무게	-8557
무지	-8558
무진	-8559
문난	-8560
문의	-8561
물들	-8562
물차	-8563
므로	-8564
미는	-8565
밀한	-8566
바삭	-8567
박현	-8568
반응	-8569
받는	-8570
발효	-8571
방에	-8572
방향	-8573
배다	-8574
배에	-8575
밸브	-8576
버는	-8577
번씩	-8578
번은	-8579
벌의	-8580
법과	-8581
병장	-8582
보로	-8583
보여	-8584
복을	-8585
복호	-8586
봤다	-8587
부랑	-8588
부림	-8589
부부	-8590
분과	-8591
분들	-8592
분별	-8593
불리	-8594
불어	-8595
비고	-8596
비한	-8597
빔밥	-8598
빛깔	-8599
▁땡	-8600
▁브	-8601
▁삐	-8602
▁섣	-8603
객들	-8604
건은	-8605
고리	-8606
곤충	-8607
꾸로	-8608
뎅이	-8609
돌기	-8610
뒤로	-8611
뚱히	-8612
록지	-8613
룬다	-8614
리라	-8615
맥을	-8616
머스	-8617
바뀐	-8618
사나	-8619
사슬	-8620
사철	-8621
산이	-8622
살도	-8623
상균	-8624
상시	-8625
색할	-8626
생황	-8627
서리	-8628
선가	-8629
선무	-8630
선암	-8631
선인	-8632
성동	-8633
성할	-8634
세도	-8635
세로	-8636
세포	-8637
셔츠	-8638
셜미	-8639
셨어	-8640
속을	-8641
수리	-8642
수선	-8643
수와	-8644
순간	-8645
순의	-8646
순자	-8647
쉽게	-8648
스럼	-8649
스코	-8650
스크	-8651
슬란	-8652
슬을	-8653
습정	-8654
시름	-8655
시지	-8656
시킵	-8657
실을	-8658
실이	-8659
십오	-8660
쌀을	-8661
쓴다	-8662
씨와	-8663
안실	-8664
않은	-8665
알젓	-8666
애를	-8667
양이	-8668
어록	-8669
어용	-8670
어준	-8671
억원	-8672
언을	-8673
업이	-8674
업인	-8675
업체	-8676
었고	-8677
었기	-8678
었냐	-8679
었네	-8680
여나	-8681
여야	-8682
역에	-8683
역은	-8684
연을	-8685
염된	-8686
영무	-8687
예주	-8688
오래	-8689
오십	-8690
올린	-8691
왕님	-8692
외선	-8693
외의	-8694
용득	-8695
용지	-8696
용차	-8697
우나	-8698
우지	-8699
▁댁	-8700
▁쑥	-8701
▁팠	-8702
▁훤	-8703
각각	-8704
괴는	-8705
놓는	-8706
동도	-8707
릇이	-8708
망이	-8709
문도	-8710
박스	-8711
병에	-8712
산화	-8713
새와	-8714
생이	-8715
시의	-8716
신은	-8717
쓸한	-8718
열이	-8719
오도	-8720
외로	-8721
요에	-8722
위기	-8723
위와	-8724
율이	-8725
음도	-8726
음새	-8727
음직	-8728
의를	-8729
이긴	-8730
이블	-8731
이상	-8732
이스	-8733
이야	-8734
일러	-8735
잎이	-8736
자나	-8737
자실	-8738
작년	-8739
잔을	-8740
장도	-8741
장애	-8742
장훈	-8743
저어	-8744
적의	-8745
전만	-8746
전복	-8747
전성	-8748
전통	-8749
정에	-8750
제와	-8751
제의	-8752
제작	-8753
졌고	-8754
조개	-8755
종술	-8756
주다	-8757
주로	-8758
주인	-8759
준히	-8760
줄로	-8761
중을	-8762
중의	-8763
즈음	-8764
지와	-8765
지황	-8766
직이	-8767
짐승	-8768
짐을	-8769
짬이	-8770
쯤에	-8771
찜이	-8772
차는	-8773
차례	-8774
차로	-8775
차피	-8776
착을	-8777
찬이	-8778
창고	-8779
창에	-8780
창욱	-8781
창원	-8782
채고	-8783
책이	-8784
천강	-8785
철이	-8786
쳐나	-8787
촉에	-8788
축한	-8789
충하	-8790
침에	-8791
콤달	-8792
큰한	-8793
키지	-8794
타리	-8795
탕은	-8796
탕이	-8797
터는	-8798
테리	-8799
kW	-8800
▁뱉	-8801
▁큽	-8802
▁탕	-8803
께서	-8804
네는	-8805
늦은	-8806
따로	-8807
미줄	-8808
색색	-8809
성큼	-8810
세라	-8811
연이	-8812
자만	-8813
저께	-8814
체험	-8815
텐데	-8816
텔레	-8817
토바	-8818
톤이	-8819
통의	-8820
통해	-8821
퇴근	-8822
투루	-8823
투성	-8824
트러	-8825
트북	-8826
평의	-8827
포츠	-8828
풀을	-8829
풍기	-8830
풍이	-8831
필요	-8832
하길	-8833
하느	-8834
하를	-8835
한한	-8836
할게	-8837
할지	-8838
해낸	-8839
해준	-8840
했기	-8841
행성	-8842
험생	-8843
현석	-8844
현을	-8845
호의	-8846
화과	-8847
화에	-8848
화의	-8849
환경	-8850
황이	-8851
효율	-8852
흔들	-8853
히며	-8854
chi	-8855
~30	-8856
~90	-8857
▁11	-8858
▁2,	-8859
▁21	-8860
▁32	-8861
▁33	-8862
▁42	-8863
▁가락	-8864
▁가쁜	-8865
▁가출	-8866
▁갇혀	-8867
▁감은	-8868
▁감을	-8869
▁갔어	-8870
▁강남	-8871
▁강화	-8872
▁개를	-8873
▁개씩	-8874
▁걔네	-8875
▁건네	-8876
▁걸고	-8877
▁걸릴	-8878
▁검게	-8879
▁검사	-8880
▁겪고	-8881
▁경순	-8882
▁경승	-8883
▁경운	-8884
▁고속	-8885
▁고여	-8886
▁고요	-8887
▁고치	-8888
▁곧장	-8889
▁공방	-8890
▁공을	-8891
▁관광	-8892
▁관찰	-8893
▁구증	-8894
▁굳은	-8895
▁굴착	-8896
▁굵게	-8897
▁굶주	-8898
▁그램	-8899
TV	-8900
~6	-8901
▁즙	-8902
가도	-8903
권이	-8904
나의	-8905
대식	-8906
래가	-8907
로워	-8908
롭고	-8909
발한	-8910
부인	-8911
뿐만	-8912
스런	-8913
여운	-8914
우실	-8915
움도	-8916
응건	-8917
전과	-8918
철로	-8919
▁7,	-8920
▁TV	-8921
▁감고	-8922
▁검고	-8923
▁고난	-8924
▁구상	-8925
▁그루	-8926
▁그룹	-8927
▁그린	-8928
▁그에	-8929
▁그을	-8930
▁긁은	-8931
▁금박	-8932
▁금액	-8933
▁금에	-8934
▁급격	-8935
▁기가	-8936
▁기댈	-8937
▁기숙	-8938
▁기약	-8939
▁기후	-8940
▁김우	-8941
▁깊숙	-8942
▁까마	-8943
▁깔아	-8944
▁깜박	-8945
▁깬다	-8946
▁껴서	-8947
▁꼬막	-8948
▁꼽을	-8949
▁꿀에	-8950
▁꿈꿀	-8951
▁꿈틀	-8952
▁끈적	-8953
▁끌을	-8954
▁나눌	-8955
▁나를	-8956
▁남긴	-8957
▁남매	-8958
▁남았	-8959
▁남지	-8960
▁낳은	-8961
▁내다	-8962
▁내릴	-8963
▁냈다	-8964
▁널린	-8965
▁넓고	-8966
▁노모	-8967
▁놀랄	-8968
▁놓게	-8969
▁놓아	-8970
▁놓았	-8971
▁놓쳐	-8972
▁놔요	-8973
▁놨다	-8974
▁누릴	-8975
▁눈보	-8976
▁눈썹	-8977
▁눕혀	-8978
▁느티	-8979
▁다들	-8980
▁다치	-8981
▁다해	-8982
▁닦아	-8983
▁단골	-8984
▁닫고	-8985
▁닭은	-8986
▁닮았	-8987
▁담는	-8988
▁당당	-8989
▁대가	-8990
▁대광	-8991
▁대는	-8992
▁대량	-8993
▁대륙	-8994
▁댄스	-8995
▁더한	-8996
▁던져	-8997
▁던질	-8998
▁덮은	-8999
꾸어	-9000
번의	-9001
았을	-9002
▁가구	-9003
▁가닥	-9004
▁가두	-9005
▁가축	-9006
▁글자	-9007
▁깎을	-9008
▁나쁘	-9009
▁나을	-9010
▁날라	-9011
▁다닐	-9012
▁다투	-9013
▁데로	-9014
▁도사	-9015
▁도중	-9016
▁돋게	-9017
▁동굴	-9018
▁되자	-9019
▁두른	-9020
▁뒤도	-9021
▁드셨	-9022
▁드실	-9023
▁들지	-9024
▁등딱	-9025
▁디딜	-9026
▁따르	-9027
▁땅만	-9028
▁땅이	-9029
▁때야	-9030
▁뜻을	-9031
▁라현	-9032
▁로드	-9033
▁루비	-9034
▁마가	-9035
▁마이	-9036
▁만났	-9037
▁만새	-9038
▁말만	-9039
▁맞물	-9040
▁맞을	-9041
▁맥간	-9042
▁맴돌	-9043
▁맺는	-9044
▁머물	-9045
▁먹나	-9046
▁멋을	-9047
▁메워	-9048
▁몇번	-9049
▁모레	-9050
▁모은	-9051
▁모조	-9052
▁몸짓	-9053
▁묘목	-9054
▁묶여	-9055
▁뭐라	-9056
▁민기	-9057
▁민박	-9058
▁믿는	-9059
▁바쁠	-9060
▁바삐	-9061
▁바삭	-9062
▁박물	-9063
▁박선	-9064
▁박스	-9065
▁발명	-9066
▁밤농	-9067
▁방해	-9068
▁밭일	-9069
▁배스	-9070
▁배웅	-9071
▁배합	-9072
▁백골	-9073
▁백내	-9074
▁뱃살	-9075
▁버스	-9076
▁버텨	-9077
▁벽면	-9078
▁변기	-9079
▁변변	-9080
▁변을	-9081
▁별거	-9082
▁별의	-9083
▁병에	-9084
▁볕이	-9085
▁보던	-9086
▁보름	-9087
▁보완	-9088
▁보행	-9089
▁볶음	-9090
▁봉화	-9091
▁부담	-9092
▁부두	-9093
▁부를	-9094
▁부었	-9095
▁부와	-9096
▁부패	-9097
▁부활	-9098
▁북한	-9099
당초	-9100
점은	-9101
천여	-9102
300	-9103
▁마다	-9104
▁마량	-9105
▁마취	-9106
▁마침	-9107
▁만끽	-9108
▁만삭	-9109
▁만원	-9110
▁문헌	-9111
▁바뀔	-9112
▁바랐	-9113
▁바이	-9114
▁보금	-9115
▁보릿	-9116
▁보자	-9117
▁분말	-9118
▁분의	-9119
▁분출	-9120
▁불구	-9121
▁불룩	-9122
▁불리	-9123
▁붓는	-9124
▁붙일	-9125
▁비용	-9126
▁비치	-9127
▁비켜	-9128
▁비탈	-9129
▁빵을	-9130
▁뻗은	-9131
▁뼈대	-9132
▁뾰족	-9133
▁사서	-9134
▁사시	-9135
▁살다	-9136
▁살은	-9137
▁살지	-9138
▁삼삼	-9139
▁삼아	-9140
▁삼은	-9141
▁상부	-9142
▁상사	-9143
▁상자	-9144
▁새도	-9145
▁새순	-9146
▁새해	-9147
▁색칠	-9148
▁생길	-9149
▁생때	-9150
▁샤인	-9151
▁서너	-9152
▁서랍	-9153
▁서민	-9154
▁섞여	-9155
▁섞인	-9156
▁선을	-9157
▁선점	-9158
▁설계	-9159
▁섬을	-9160
▁섬의	-9161
▁섭취	-9162
▁성일	-9163
▁세탁	-9164
▁소고	-9165
▁손대	-9166
▁솜털	-9167
▁솟는	-9168
▁송화	-9169
▁쇠를	-9170
▁수거	-9171
▁수고	-9172
▁수놈	-9173
▁수단	-9174
▁수를	-9175
▁수저	-9176
▁수조	-9177
▁수중	-9178
▁수출	-9179
▁숙취	-9180
▁순응	-9181
▁술만	-9182
▁술이	-9183
▁숨죽	-9184
▁쉬워	-9185
▁슈덴	-9186
▁스물	-9187
▁스쳐	-9188
▁스쿠	-9189
▁스타	-9190
▁스테	-9191
▁시댁	-9192
▁시려	-9193
▁시멘	-9194
▁시킬	-9195
▁신성	-9196
▁신세	-9197
▁싫은	-9198
▁심한	-9199
걸리	-9200
금을	-9201
나서	-9202
음에	-9203
질될	-9204
카락	-9205
▁가보	-9206
▁거래	-9207
▁거칠	-9208
▁걸렸	-9209
▁고객	-9210
▁고랑	-9211
▁고려	-9212
▁고서	-9213
▁고약	-9214
▁고유	-9215
▁고작	-9216
▁고지	-9217
▁고풍	-9218
▁광이	-9219
▁기능	-9220
▁기하	-9221
▁내던	-9222
▁내밀	-9223
▁내에	-9224
▁내지	-9225
▁대게	-9226
▁대를	-9227
▁대화	-9228
▁돌의	-9229
▁때만	-9230
▁많을	-9231
▁몇천	-9232
▁모는	-9233
▁모면	-9234
▁목포	-9235
▁못생	-9236
▁무는	-9237
▁부대	-9238
▁생존	-9239
▁싸리	-9240
▁쌀독	-9241
▁쌍둥	-9242
▁쐬러	-9243
▁씨름	-9244
▁씨만	-9245
▁씹어	-9246
▁씹을	-9247
▁아교	-9248
▁아끼	-9249
▁아낌	-9250
▁아우	-9251
▁아욱	-9252
▁아플	-9253
▁안긴	-9254
▁안내	-9255
▁안되	-9256
▁안마	-9257
▁안은	-9258
▁안이	-9259
▁안테	-9260
▁안해	-9261
▁안희	-9262
▁앉은	-9263
▁않던	-9264
▁않으	-9265
▁알은	-9266
▁암수	-9267
▁압연	-9268
▁앞을	-9269
▁앞의	-9270
▁앞이	-9271
▁애교	-9272
▁애순	-9273
▁애정	-9274
▁애틋	-9275
▁액운	-9276
▁야산	-9277
▁양도	-9278
▁양말	-9279
▁어군	-9280
▁어김	-9281
▁어딜	-9282
▁어울	-9283
▁얻는	-9284
▁얼레	-9285
▁얽힌	-9286
▁없나	-9287
▁엎어	-9288
▁여덟	-9289
▁연습	-9290
▁연이	-9291
▁연중	-9292
▁엿은	-9293
▁엿이	-9294
▁영미	-9295
▁영민	-9296
▁오기	-9297
▁오려	-9298
▁오시	-9299
마라	-9300
매일	-9301
조각	-9302
▁간직	-9303
▁근로	-9304
▁남는	-9305
▁남북	-9306
▁남한	-9307
▁내기	-9308
▁도가	-9309
▁도는	-9310
▁도안	-9311
▁도토	-9312
▁마저	-9313
▁말리	-9314
▁먹다	-9315
▁먹인	-9316
▁물도	-9317
▁물리	-9318
▁미련	-9319
▁비우	-9320
▁상온	-9321
▁상할	-9322
▁생에	-9323
▁소각	-9324
▁손수	-9325
▁손잡	-9326
▁손해	-9327
▁술에	-9328
▁싶고	-9329
▁쓰임	-9330
▁쓰지	-9331
▁온다	-9332
▁온통	-9333
▁옮길	-9334
▁옻은	-9335
▁외국	-9336
▁요구	-9337
▁운이	-9338
▁움츠	-9339
▁웃어	-9340
▁웅덩	-9341
▁원대	-9342
▁원에	-9343
▁원인	-9344
▁원형	-9345
▁위생	-9346
▁위쪽	-9347
▁유행	-9348
▁육공	-9349
▁은세	-9350
▁은판	-9351
▁은혜	-9352
▁이겨	-9353
▁이경	-9354
▁이기	-9355
▁이뇨	-9356
▁이도	-9357
▁이식	-9358
▁이하	-9359
▁이혼	-9360
▁익힘	-9361
▁인명	-9362
▁인상	-9363
▁인원	-9364
▁인적	-9365
▁인체	-9366
▁일과	-9367
▁일구	-9368
▁일러	-9369
▁일상	-9370
▁일으	-9371
▁일차	-9372
▁일컫	-9373
▁일할	-9374
▁일행	-9375
▁읽어	-9376
▁임정	-9377
▁입에	-9378
▁입혀	-9379
▁잇지	-9380
▁있긴	-9381
▁있냐	-9382
▁있네	-9383
▁있듯	-9384
▁잊지	-9385
▁자격	-9386
▁자국	-9387
▁자랄	-9388
▁자르	-9389
▁자매	-9390
▁자줏	-9391
▁자처	-9392
▁자태	-9393
▁자화	-9394
▁작고	-9395
▁작정	-9396
▁잘게	-9397
▁잠이	-9398
▁잡자	-9399
률은	-9400
발로	-9401
우로	-9402
혜도	-9403
▁값이	-9404
▁그럽	-9405
▁낫을	-9406
▁돌보	-9407
▁돌봐	-9408
▁돌은	-9409
▁돼지	-9410
▁되셨	-9411
▁되찾	-9412
▁드시	-9413
▁마케	-9414
▁못을	-9415
▁못이	-9416
▁못지	-9417
▁못하	-9418
▁물어	-9419
▁벌레	-9420
▁불면	-9421
▁불보	-9422
▁불의	-9423
▁비료	-9424
▁산나	-9425
▁산책	-9426
▁살려	-9427
▁살릴	-9428
▁살면	-9429
▁살의	-9430
▁선이	-9431
▁와이	-9432
▁우도	-9433
▁잡혔	-9434
▁잡힐	-9435
▁잤어	-9436
▁장독	-9437
▁장마	-9438
▁장착	-9439
▁장화	-9440
▁저걸	-9441
▁저런	-9442
▁저로	-9443
▁저울	-9444
▁저의	-9445
▁저장	-9446
▁저항	-9447
▁적다	-9448
▁전립	-9449
▁전분	-9450
▁전업	-9451
▁전을	-9452
▁절구	-9453
▁점검	-9454
▁젓는	-9455
▁정갈	-9456
▁정기	-9457
▁정면	-9458
▁정박	-9459
▁정상	-9460
▁정선	-9461
▁정수	-9462
▁정오	-9463
▁정의	-9464
▁정이	-9465
▁정조	-9466
▁정처	-9467
▁정현	-9468
▁제격	-9469
▁제사	-9470
▁제외	-9471
▁조청	-9472
▁조화	-9473
▁졸업	-9474
▁좁고	-9475
▁주목	-9476
▁주사	-9477
▁주시	-9478
▁주업	-9479
▁주종	-9480
▁주행	-9481
▁주황	-9482
▁중순	-9483
▁중인	-9484
▁줘요	-9485
▁쥐가	-9486
▁즈음	-9487
▁즙이	-9488
▁증류	-9489
▁증발	-9490
▁증손	-9491
▁지골	-9492
▁지구	-9493
▁지낸	-9494
▁지름	-9495
▁지목	-9496
▁지문	-9497
▁지적	-9498
▁지킨	-9499
나게	-9500
터라	-9501
학을	-9502
▁각광	-9503
▁겉은	-9504
▁구입	-9505
▁끓이	-9506
▁날렵	-9507
▁날짜	-9508
▁남극	-9509
▁단열	-9510
▁동족	-9511
▁동해	-9512
▁두둑	-9513
▁두리	-9514
▁두면	-9515
▁뒤로	-9516
▁들은	-9517
▁따다	-9518
▁따른	-9519
▁따온	-9520
▁따질	-9521
▁뚝딱	-9522
▁밑반	-9523
▁발로	-9524
▁발파	-9525
▁벌에	-9526
▁법이	-9527
▁삼이	-9528
▁서글	-9529
▁성분	-9530
▁식혀	-9531
▁알기	-9532
▁알도	-9533
▁알레	-9534
▁올챙	-9535
▁원료	-9536
▁원본	-9537
▁원산	-9538
▁원씩	-9539
▁원액	-9540
▁원이	-9541
▁유기	-9542
▁유빈	-9543
▁유연	-9544
▁종구	-9545
▁중화	-9546
▁진동	-9547
▁진미	-9548
▁진상	-9549
▁진시	-9550
▁집합	-9551
▁짓밟	-9552
▁짬이	-9553
▁찍는	-9554
▁찍혀	-9555
▁차게	-9556
▁차면	-9557
▁참을	-9558
▁창문	-9559
▁창조	-9560
▁창피	-9561
▁찾다	-9562
▁채석	-9563
▁채소	-9564
▁채에	-9565
▁채울	-9566
▁천만	-9567
▁천식	-9568
▁천지	-9569
▁철통	-9570
▁청한	-9571
▁체력	-9572
▁쳐서	-9573
▁초등	-9574
▁촉에	-9575
▁추자	-9576
▁춥고	-9577
▁취급	-9578
▁층층	-9579
▁칠흑	-9580
▁컴퍼	-9581
▁코르	-9582
▁코팅	-9583
▁쿠키	-9584
▁키로	-9585
▁키울	-9586
▁타서	-9587
▁타일	-9588
▁탐지	-9589
▁통의	-9590
▁통장	-9591
▁통통	-9592
▁튀기	-9593
▁튀면	-9594
▁틀림	-9595
▁틈이	-9596
▁팀원	-9597
▁판로	-9598
▁판이	-9599
칙이	-9600
▁26	-9601
▁34	-9602
▁갑옷	-9603
▁결을	-9604
▁경로	-9605
▁경춘	-9606
▁글루	-9607
▁금새	-9608
▁급여	-9609
▁끝도	-9610
▁낮은	-9611
▁달고	-9612
▁달릴	-9613
▁달을	-9614
▁대충	-9615
▁드려	-9616
▁드물	-9617
▁드신	-9618
▁맛보	-9619
▁미소	-9620
▁미술	-9621
▁반쯤	-9622
▁배출	-9623
▁번데	-9624
▁벽체	-9625
▁분쇄	-9626
▁새가	-9627
▁새까	-9628
▁새빨	-9629
▁솥에	-9630
▁순조	-9631
▁순찰	-9632
▁순희	-9633
▁신발	-9634
▁양봉	-9635
▁양주	-9636
▁연락	-9637
▁영역	-9638
▁왼쪽	-9639
▁인건	-9640
▁재빠	-9641
▁저리	-9642
▁찍고	-9643
▁차서	-9644
▁참꼬	-9645
▁탈이	-9646
▁팔러	-9647
▁팔찌	-9648
▁팽팽	-9649
▁퍼져	-9650
▁펴서	-9651
▁편한	-9652
▁포악	-9653
▁푸짐	-9654
▁풀이	-9655
▁품목	-9656
▁피어	-9657
▁핀다	-9658
▁하랴	-9659
▁하소	-9660
▁하수	-9661
▁하신	-9662
▁하얗	-9663
▁하찮	-9664
▁하트	-9665
▁한거	-9666
▁한껏	-9667
▁한몫	-9668
▁한입	-9669
▁한자	-9670
▁한판	-9671
▁해독	-9672
▁해먹	-9673
▁해변	-9674
▁해보	-9675
▁해온	-9676
▁해준	-9677
▁해체	-9678
▁행자	-9679
▁헤어	-9680
▁혀가	-9681
▁현성	-9682
▁형이	-9683
▁형형	-9684
▁호는	-9685
▁호망	-9686
▁호주	-9687
▁호진	-9688
▁혹이	-9689
▁홈을	-9690
▁화재	-9691
▁화해	-9692
▁확보	-9693
▁활기	-9694
▁활보	-9695
▁활의	-9696
▁회나	-9697
▁회의	-9698
▁후계	-9699
거라	-9700
속이	-9701
콥터	-9702
▁곳의	-9703
▁금맥	-9704
▁금어	-9705
▁금치	-9706
▁금형	-9707
▁금호	-9708
▁끝날	-9709
▁끝낸	-9710
▁너를	-9711
▁넣기	-9712
▁노폐	-9713
▁녹이	-9714
▁당장	-9715
▁두루	-9716
▁멈춰	-9717
▁방심	-9718
▁방자	-9719
▁방풍	-9720
▁벌꿀	-9721
▁분들	-9722
▁분을	-9723
▁분자	-9724
▁쓰던	-9725
▁열무	-9726
▁열자	-9727
▁열처	-9728
▁영광	-9729
▁영란	-9730
▁영석	-9731
▁영약	-9732
▁예를	-9733
▁온갖	-9734
▁온실	-9735
▁유겸	-9736
▁육안	-9737
▁은식	-9738
▁자석	-9739
▁진도	-9740
▁진이	-9741
▁창규	-9742
▁크는	-9743
▁호스	-9744
▁화분	-9745
▁화천	-9746
▁후회	-9747
▁휘젓	-9748
▁흐르	-9749
▁흔한	-9750
▁흙만	-9751
▁흩날	-9752
▁희자	-9753
▁힘겨	-9754
▁힘도	-9755
▁힘은	-9756
▁힘의	-9757
가락지	-9758
가마에	-9759
간힘을	-9760
갑시다	-9761
개월이	-9762
거리로	-9763
거리만	-9764
거예요	-9765
거하고	-9766
겁지만	-9767
경관과	-9768
계이다	-9769
구잡이	-9770
군다나	-9771
그러진	-9772
그릇에	-9773
기들은	-9774
기전에	-9775
나가고	-9776
나마나	-9777
난다고	-9778
남매의	-9779
년생인	-9780
년에서	-9781
년이야	-9782
년인가	-9783
년인데	-9784
농도를	-9785
놨어요	-9786
니바퀴	-9787
다시피	-9788
답니다	-9789
대로만	-9790
대왕의	-9791
더라고	-9792
덩어리	-9793
덩이를	-9794
동물이	-9795
동생은	-9796
동으로	-9797
동체가	-9798
동했다	-9799
년만	-9800
택에	-9801
▁갈기	-9802
▁갈려	-9803
▁결이	-9804
▁권위	-9805
▁김에	-9806
▁김일	-9807
▁꿈쩍	-9808
▁넘겨	-9809
▁넘기	-9810
▁넘나	-9811
▁넘을	-9812
▁독일	-9813
▁들려	-9814
▁들른	-9815
▁들면	-9816
▁들썩	-9817
▁떼지	-9818
▁몸값	-9819
▁벗고	-9820
▁복숭	-9821
▁생전	-9822
▁수억	-9823
▁실감	-9824
▁실한	-9825
▁심고	-9826
▁심해	-9827
▁쓰기	-9828
▁않자	-9829
▁없지	-9830
▁요거	-9831
▁이끌	-9832
▁참는	-9833
▁처럼	-9834
▁천남	-9835
▁천차	-9836
▁촉촉	-9837
▁크면	-9838
▁크지	-9839
▁타작	-9840
▁타지	-9841
▁했기	-9842
▁호출	-9843
▁홍삼	-9844
끄러운	-9845
됐는지	-9846
되어서	-9847
된다고	-9848
둡니다	-9849
둥뎅이	-9850
둥이로	-9851
들이는	-9852
라고는	-9853
라도록	-9854
라든지	-9855
랍게도	-9856
량이다	-9857
력이다	-9858
렸지만	-9859
롭기만	-9860
리려고	-9861
리인지	-9862
리하게	-9863
릿느릿	-9864
마어마	-9865
마저도	-9866
말벌은	-9867
망원경	-9868
매불망	-9869
목에서	-9870
무리를	-9871
물질을	-9872
민이도	-9873
바다가	-9874
바람을	-9875
박지로	-9876
박현식	-9877
밭에서	-9878
밸브를	-9879
버렸네	-9880
버섯이	-9881
봤지만	-9882
부러져	-9883
부모의	-9884
부분이	-9885
분하다	-9886
뿐만이	-9887
쁩니다	-9888
삭기가	-9889
상가상	-9890
새우가	-9891
새우라	-9892
색한다	-9893
생활을	-9894
선이다	-9895
소리는	-9896
소한의	-9897
속까지	-9898
송이를	-9899
▁감아	-9900
▁갑훈	-9901
▁겨눈	-9902
▁구울	-9903
▁길다	-9904
▁높여	-9905
▁누려	-9906
▁다슬	-9907
▁데려	-9908
▁막는	-9909
▁막혀	-9910
▁매장	-9911
▁박명	-9912
▁받던	-9913
▁발톱	-9914
▁붙잡	-9915
▁뿌연	-9916
▁싶을	-9917
▁앞둔	-9918
▁애용	-9919
▁옻을	-9920
▁은땜	-9921
▁은빗	-9922
▁이금	-9923
▁잠잠	-9924
▁치솟	-9925
▁치워	-9926
▁침묵	-9927
▁투자	-9928
▁파괴	-9929
▁피가	-9930
▁피고	-9931
▁피할	-9932
▁필름	-9933
▁항균	-9934
▁해볼	-9935
▁허운	-9936
▁허탈	-9937
▁호의	-9938
▁황동	-9939
▁후로	-9940
▁후의	-9941
될수록	-9942
보이는	-9943
수씨의	-9944
스크를	-9945
슬고슬	-9946
슬란드	-9947
시간째	-9948
시까지	-9949
시라고	-9950
시면서	-9951
시키면	-9952
식으로	-9953
십시오	-9954
아부패	-9955
아준다	-9956
았더니	-9957
약초가	-9958
약초로	-9959
양분이	-9960
어가고	-9961
어나는	-9962
어지는	-9963
없다고	-9964
었다고	-9965
여하는	-9966
연하게	-9967
였어요	-9968
오르는	-9969
왔어요	-9970
왔으면	-9971
월에는	-9972
육십오	-9973
으면은	-9974
이니까	-9975
인들은	-9976
인들이	-9977
인에게	-9978
인이자	-9979
인조는	-9980
일이고	-9981
입니까	-9982
있는데	-9983
있어요	-9984
자들을	-9985
자루를	-9986
잡이다	-9987
장어에	-9988
장어탕	-9989
재료가	-9990
쟁이는	-9991
전기를	-9992
전부터	-9993
정하게	-9994
졌는데	-9995
종위기	-9996
주었다	-9997
중에서	-9998
지까지	-9999
봉지	-10000
석해	-10001
틈이	-10002
▁깨고	-10003
▁난감	-10004
▁난방	-10005
▁난이	-10006
▁떼를	-10007
▁목에	-10008
▁목재	-10009
▁변환	-10010
▁별명	-10011
▁소화	-10012
▁쓸어	-10013
▁안착	-10014
▁약품	-10015
▁일했	-10016
▁입기	-10017
▁입이	-10018
▁입학	-10019
▁적합	-10020
▁종양	-10021
▁종이	-10022
▁죽일	-10023
▁칡을	-10024
▁팔려	-10025
▁팔에	-10026
▁편이	-10027
▁편지	-10028
▁형성	-10029
▁형제	-10030
▁혼합	-10031
개월은	-10032
났네요	-10033
다가도	-10034
보인다	-10035
보지만	-10036
지나요	-10037
지라는	-10038
진다는	-10039
찌개다	-10040
착오를	-10041
참나무	-10042
천리로	-10043
층으로	-10044
치기도	-10045
친구가	-10046
쾌하다	-10047
터이다	-10048
텔레비	-10049
투하는	-10050
퉁이에	-10051
트린다	-10052
포인트	-10053
하기에	-10054
하나를	-10055
하라고	-10056
하셨다	-10057
하시는	-10058
하시죠	-10059
하지도	-10060
해놓은	-10061
해져야	-10062
해지는	-10063
형태를	-10064
호씨도	-10065
호점을	-10066
회보다	-10067
힙니다	-10068
chin	-10069
▁1,1	-10070
▁150	-10071
▁1~2	-10072
▁240	-10073
▁250	-10074
▁60%	-10075
▁80%	-10076
▁946	-10077
▁가게는	-10078
▁가구는	-10079
▁가구를	-10080
▁가꾸어	-10081
▁가니까	-10082
▁가두리	-10083
▁가려면	-10084
▁가로막	-10085
▁가마를	-10086
▁가문의	-10087
▁가볍고	-10088
▁가을은	-10089
▁가졌다	-10090
▁가파른	-10091
▁각별한	-10092
▁간격은	-10093
▁간다는	-10094
▁갈고리	-10095
▁갈등을	-10096
▁갈치는	-10097
▁갈치를	-10098
▁감돌기	-10099
반에	-10100
새다	-10101
신지	-10102
처를	-10103
키로	-10104
▁값진	-10105
▁긴급	-10106
▁김정	-10107
▁남이	-10108
▁놀고	-10109
▁될지	-10110
▁뒤에	-10111
▁뒤져	-10112
▁매고	-10113
▁몰두	-10114
▁백화	-10115
▁버티	-10116
▁베고	-10117
▁변한	-10118
▁색과	-10119
▁성인	-10120
▁속도	-10121
▁솎아	-10122
▁용의	-10123
▁운석	-10124
▁운전	-10125
▁의료	-10126
▁인한	-10127
▁잡이	-10128
▁정력	-10129
▁제공	-10130
▁짐승	-10131
▁해장	-10132
보낸다	-10133
성이기	-10134
수씨가	-10135
어내는	-10136
용으로	-10137
주지를	-10138
줘야지	-10139
하도록	-10140
▁가파도	-10141
▁감사한	-10142
▁감자가	-10143
▁갔는데	-10144
▁갔다가	-10145
▁강사의	-10146
▁강원도	-10147
▁강진은	-10148
▁강창원	-10149
▁강해요	-10150
▁갖추고	-10151
▁같았다	-10152
▁거꾸로	-10153
▁거는데	-10154
▁거니까	-10155
▁거뜬히	-10156
▁거라는	-10157
▁거름이	-10158
▁거리는	-10159
▁거미줄	-10160
▁거울을	-10161
▁거제도	-10162
▁거치지	-10163
▁걱정은	-10164
▁건강과	-10165
▁건강할	-10166
▁건강해	-10167
▁건너편	-10168
▁건전복	-10169
▁건져내	-10170
▁건조된	-10171
▁건지는	-10172
▁걷는다	-10173
▁걸러낸	-10174
▁걸려들	-10175
▁걸렸던	-10176
▁걸어간	-10177
▁검은색	-10178
▁것들을	-10179
▁것만큼	-10180
▁것부터	-10181
▁것이죠	-10182
▁겨를이	-10183
▁견디고	-10184
▁견인차	-10185
▁결실을	-10186
▁결정한	-10187
▁결혼예	-10188
▁경매가	-10189
▁경사진	-10190
▁경옥고	-10191
▁경쾌한	-10192
▁경험과	-10193
▁계속될	-10194
▁계시고	-10195
▁고가의	-10196
▁고라니	-10197
▁고르게	-10198
▁고마워	-10199
년인	-10200
주신	-10201
지던	-10202
호점	-10203
▁꺼낸	-10204
▁널어	-10205
▁망사	-10206
▁별이	-10207
▁뽀얀	-10208
▁살찌	-10209
▁석고	-10210
▁석회	-10211
▁수송	-10212
▁슬쩍	-10213
▁씨방	-10214
▁약산	-10215
▁육박	-10216
▁육지	-10217
▁잃는	-10218
▁칼의	-10219
▁판다	-10220
▁회장	-10221
구이를	-10222
냄새가	-10223
자이다	-10224
▁겨울의	-10225
▁고맙게	-10226
▁고민을	-10227
▁고산지	-10228
▁고생이	-10229
▁고장은	-10230
▁고정을	-10231
▁고집을	-10232
▁고집이	-10233
▁고쳐야	-10234
▁고추밭	-10235
▁곤충을	-10236
▁곤충의	-10237
▁곳곳을	-10238
▁곳까지	-10239
▁곳에는	-10240
▁공기를	-10241
▁공정이	-10242
▁과감히	-10243
▁과외는	-10244
▁과정에	-10245
▁관객들	-10246
▁관계를	-10247
▁관광객	-10248
▁관련된	-10249
▁관리에	-10250
▁관심을	-10251
▁관심이	-10252
▁관통해	-10253
▁광택을	-10254
▁괜찮다	-10255
▁교습은	-10256
▁구매할	-10257
▁구워서	-10258
▁구조를	-10259
▁구조센	-10260
▁구하기	-10261
▁국내에	-10262
▁국립공	-10263
▁굵기가	-10264
▁굶주린	-10265
▁궁금한	-10266
▁권력을	-10267
▁권영무	-10268
▁귀농을	-10269
▁귀찮게	-10270
▁규모의	-10271
▁균열이	-10272
▁그간의	-10273
▁그거는	-10274
▁그거를	-10275
▁그나마	-10276
▁그들을	-10277
▁그런건	-10278
▁그릇에	-10279
▁그리는	-10280
▁그린다	-10281
▁그림의	-10282
▁그물코	-10283
▁그에게	-10284
▁그쪽에	-10285
▁근심이	-10286
▁근처를	-10287
▁금속을	-10288
▁금속이	-10289
▁급선무	-10290
▁기계도	-10291
▁기계의	-10292
▁기다릴	-10293
▁기다림	-10294
▁기대해	-10295
▁기름에	-10296
▁기뻐요	-10297
▁기쁨을	-10298
▁기억을	-10299
머로	-10300
▁검출	-10301
▁국민	-10302
▁까고	-10303
▁깔고	-10304
▁낮다	-10305
▁녹는	-10306
▁녹용	-10307
▁도료	-10308
▁민망	-10309
▁볼까	-10310
▁분단	-10311
▁섬에	-10312
▁숙련	-10313
▁술로	-10314
▁술병	-10315
▁스피	-10316
▁옷은	-10317
▁요동	-10318
▁주환	-10319
▁찍은	-10320
▁초기	-10321
▁표정	-10322
▁표지	-10323
년대를	-10324
았다는	-10325
어지면	-10326
울수록	-10327
이라서	-10328
▁가져갈	-10329
▁개인지	-10330
▁기온이	-10331
▁길덕환	-10332
▁길이를	-10333
▁길조차	-10334
▁김영백	-10335
▁김용득	-10336
▁김응건	-10337
▁김재우	-10338
▁깊어만	-10339
▁깊이는	-10340
▁깎는다	-10341
▁깎아내	-10342
▁깨우는	-10343
▁깨운다	-10344
▁깨져요	-10345
▁깨지는	-10346
▁깨진다	-10347
▁깨질까	-10348
▁꺼내는	-10349
▁껍질과	-10350
▁껍질에	-10351
▁껍질은	-10352
▁껍질째	-10353
▁꼬막을	-10354
▁꼬부랑	-10355
▁꼼짝도	-10356
▁꽁치가	-10357
▁꽂혔다	-10358
▁꽃게를	-10359
▁꾸준히	-10360
▁끓는다	-10361
▁끓여낸	-10362
▁끓여먹	-10363
▁끓여야	-10364
▁끝나지	-10365
▁끝내고	-10366
▁끝내야	-10367
▁끼니를	-10368
▁끼워야	-10369
▁나가지	-10370
▁나네요	-10371
▁나누고	-10372
▁나누는	-10373
▁나누며	-10374
▁나는데	-10375
▁나무도	-10376
▁나보다	-10377
▁나타나	-10378
▁낙엽이	-10379
▁낚시는	-10380
▁난다고	-10381
▁날개가	-10382
▁날갯짓	-10383
▁날까지	-10384
▁날리기	-10385
▁날보다	-10386
▁날씨는	-10387
▁날씨도	-10388
▁날씨와	-10389
▁남는다	-10390
▁남성의	-10391
▁남자들	-10392
▁남진이	-10393
▁남편에	-10394
▁낮에는	-10395
▁낮추고	-10396
▁낳았다	-10397
▁내기도	-10398
▁내려야	-10399
도순	-10400
증과	-10401
▁당초	-10402
▁듣지	-10403
▁병씩	-10404
▁보신	-10405
▁뿐인	-10406
▁쓸려	-10407
▁암기	-10408
▁암을	-10409
▁얇고	-10410
▁엉킨	-10411
▁임자	-10412
▁제안	-10413
▁찾던	-10414
▁첫날	-10415
▁첫눈	-10416
▁친척	-10417
내려면	-10418
신이다	-10419
포되어	-10420
하자는	-10421
해보는	-10422
▁가게에	-10423
▁가려는	-10424
▁가야지	-10425
▁가치는	-10426
▁걸리지	-10427
▁급하게	-10428
▁급하다	-10429
▁기분을	-10430
▁끝나자	-10431
▁낚이면	-10432
▁내리기	-10433
▁내색은	-10434
▁내어주	-10435
▁내일도	-10436
▁내장을	-10437
▁내줘야	-10438
▁냄비는	-10439
▁냄비의	-10440
▁너한테	-10441
▁너희는	-10442
▁넓이를	-10443
▁넓적한	-10444
▁넘겼다	-10445
▁넘치는	-10446
▁넣어둔	-10447
▁넣어요	-10448
▁넣었을	-10449
▁네모난	-10450
▁녀석이	-10451
▁노부부	-10452
▁노트북	-10453
▁녹록지	-10454
▁논두렁	-10455
▁논산에	-10456
▁농사꾼	-10457
▁농사만	-10458
▁농사지	-10459
▁농장은	-10460
▁높아져	-10461
▁높으면	-10462
▁높이기	-10463
▁높이를	-10464
▁놓치지	-10465
▁뇌두가	-10466
▁누구의	-10467
▁누나의	-10468
▁눈다랑	-10469
▁눈빛만	-10470
▁눈빛이	-10471
▁눈앞에	-10472
▁눈치가	-10473
▁눈치를	-10474
▁느긋한	-10475
▁느끼고	-10476
▁늑대다	-10477
▁늘리는	-10478
▁늦어져	-10479
▁다가가	-10480
▁다닌다	-10481
▁다듬는	-10482
▁다루다	-10483
▁다룬다	-10484
▁다반사	-10485
▁다음을	-10486
▁다짐을	-10487
▁다치면	-10488
▁다치지	-10489
▁다해야	-10490
▁닥나무	-10491
▁닦아야	-10492
▁단가가	-10493
▁단순히	-10494
▁단잠을	-10495
▁단짝이	-10496
▁단청의	-10497
▁달라서	-10498
▁달려야	-10499
려도	-10500
▁98	-10501
▁99	-10502
▁가스	-10503
▁검정	-10504
▁굴뚝	-10505
▁낳아	-10506
▁닭고	-10507
▁됐어	-10508
▁묻은	-10509
▁봉석	-10510
▁빼앗	-10511
▁뼈째	-10512
▁상한	-10513
▁성원	-10514
▁솜이	-10515
▁숨긴	-10516
▁써는	-10517
▁써도	-10518
▁잣은	-10519
▁지휘	-10520
▁짓는	-10521
▁터라	-10522
▁터져	-10523
▁톱이	-10524
▁톱질	-10525
▁품은	-10526
▁핀셋	-10527
▁허약	-10528
▁헤엄	-10529
두었던	-10530
오르고	-10531
정도를	-10532
주거나	-10533
▁가시를	-10534
▁갯벌이	-10535
▁걸려서	-10536
▁경력이	-10537
▁공장이	-10538
▁그릇은	-10539
▁꺼내고	-10540
▁꼬리를	-10541
▁넣어주	-10542
▁녹이기	-10543
▁놀아야	-10544
▁닭백숙	-10545
▁담가서	-10546
▁담아야	-10547
▁담으면	-10548
▁답답할	-10549
▁당기는	-10550
▁당부가	-10551
▁당신을	-10552
▁닿기만	-10553
▁대가를	-10554
▁대구가	-10555
▁대구에	-10556
▁대단한	-10557
▁대물을	-10558
▁대신에	-10559
▁대신할	-10560
▁대학생	-10561
▁대학에	-10562
▁대화를	-10563
▁더불어	-10564
▁더없이	-10565
▁더위와	-10566
▁더이상	-10567
▁더하기	-10568
▁더하는	-10569
▁더한다	-10570
▁던진다	-10571
▁덩어리	-10572
▁데쳐서	-10573
▁도로를	-10574
▁도무지	-10575
▁도시락	-10576
▁도어록	-10577
▁도와드	-10578
▁도와줘	-10579
▁독소가	-10580
▁독초의	-10581
▁독촉에	-10582
▁독활이	-10583
▁돌리면	-10584
▁돌멩이	-10585
▁돌아갈	-10586
▁돌아올	-10587
▁동남아	-10588
▁동물의	-10589
▁동생도	-10590
▁동서가	-10591
▁동충하	-10592
▁돼지고	-10593
▁되겠다	-10594
▁되겠어	-10595
▁되나요	-10596
▁되어줄	-10597
▁되잖아	-10598
▁된다는	-10599
보자	-10600
선수	-10601
▁깨질	-10602
▁낮춰	-10603
▁달만	-10604
▁받기	-10605
▁벗긴	-10606
▁승규	-10607
▁승섭	-10608
▁싫을	-10609
▁잃을	-10610
▁탱글	-10611
▁터는	-10612
▁틈을	-10613
▁폭파	-10614
가루가	-10615
군이다	-10616
려놓고	-10617
일동안	-10618
▁게르의	-10619
▁교체를	-10620
▁그럼요	-10621
▁기록이	-10622
▁기상이	-10623
▁기술이	-10624
▁꺼내서	-10625
▁꺼내지	-10626
▁나왔던	-10627
▁농약을	-10628
▁다니시	-10629
▁된장을	-10630
▁될까봐	-10631
▁됩니까	-10632
▁두껍게	-10633
▁두께도	-10634
▁두려워	-10635
▁둘레에	-10636
▁둘이서	-10637
▁뒤늦은	-10638
▁뒤바뀐	-10639
▁뒤에는	-10640
▁뒤에서	-10641
▁뒤주의	-10642
▁뒤집어	-10643
▁뒷면에	-10644
▁드러낸	-10645
▁드시고	-10646
▁듣지도	-10647
▁들어서	-10648
▁들여다	-10649
▁들이다	-10650
▁듯한데	-10651
▁따기는	-10652
▁따라와	-10653
▁따른다	-10654
▁딸들은	-10655
▁딸하고	-10656
▁땀으로	-10657
▁땅두릅	-10658
▁땅벌은	-10659
▁땅벌을	-10660
▁땅콩을	-10661
▁때려서	-10662
▁때로는	-10663
▁때마침	-10664
▁때에도	-10665
▁때와는	-10666
▁땡볕에	-10667
▁떠나는	-10668
▁떠맡은	-10669
▁떨어질	-10670
▁또다른	-10671
▁똑같이	-10672
▁뚫어야	-10673
▁뚫어요	-10674
▁뛰쳐나	-10675
▁라디오	-10676
▁로드킬	-10677
▁마는데	-10678
▁마당도	-10679
▁마련된	-10680
▁마련한	-10681
▁마르면	-10682
▁마르지	-10683
▁마리당	-10684
▁마리로	-10685
▁마셨다	-10686
▁마신다	-10687
▁막걸리	-10688
▁막내딸	-10689
▁막내야	-10690
▁막히는	-10691
▁만나기	-10692
▁만반의	-10693
▁만약에	-10694
▁만약을	-10695
▁만지고	-10696
▁만지면	-10697
▁만큼만	-10698
▁만큼의	-10699
▁갓을	-10700
▁갖은	-10701
▁고심	-10702
▁굽을	-10703
▁꿩이	-10704
▁닮은	-10705
▁덩굴	-10706
▁돕는	-10707
▁먹자	-10708
▁무안	-10709
▁사기	-10710
▁안된	-10711
▁옆을	-10712
▁왕이	-10713
▁윤성	-10714
▁윤자	-10715
▁윤정	-10716
▁이긴	-10717
▁즐거	-10718
▁즐겨	-10719
▁축하	-10720
▁튀김	-10721
▁펼치	-10722
▁합의	-10723
▁후반	-10724
▁흘려	-10725
▁흘린	-10726
용품을	-10727
정도면	-10728
▁가겠어	-10729
▁가공이	-10730
▁간만에	-10731
▁구워도	-10732
▁글자의	-10733
▁노동을	-10734
▁달라붙	-10735
▁덩치가	-10736
▁도구를	-10737
▁두께를	-10738
▁똑같다	-10739
▁많아질	-10740
▁많지만	-10741
▁말끔히	-10742
▁말다툼	-10743
▁말라야	-10744
▁말라요	-10745
▁말아요	-10746
▁말하면	-10747
▁맛보기	-10748
▁맛있어	-10749
▁맛있을	-10750
▁망가뜨	-10751
▁망가진	-10752
▁망원경	-10753
▁맞아요	-10754
▁맞춰야	-10755
▁맡아서	-10756
▁매력에	-10757
▁매출을	-10758
▁머리에	-10759
▁먹버섯	-10760
▁먹어본	-10761
▁먹으니	-10762
▁먹으며	-10763
▁먹음직	-10764
▁먼지를	-10765
▁멀뚱히	-10766
▁멈추고	-10767
▁멈춘다	-10768
▁멋스러	-10769
▁며칠을	-10770
▁며칠이	-10771
▁멸치를	-10772
▁모기에	-10773
▁모래와	-10774
▁모르죠	-10775
▁모서리	-10776
▁모습은	-10777
▁모시고	-10778
▁모시는	-10779
▁모양도	-10780
▁모양은	-10781
▁모였다	-10782
▁모으기	-10783
▁모피가	-10784
▁모피의	-10785
▁목소리	-10786
▁목적지	-10787
▁목탁의	-10788
▁목표가	-10789
▁목표인	-10790
▁목화는	-10791
▁목화씨	-10792
▁몰디브	-10793
▁몰라요	-10794
▁몰아닥	-10795
▁몸무게	-10796
▁몸부림	-10797
▁몸에서	-10798
▁몸집이	-10799
▁법을	-10800
▁빚을	-10801
▁썩어	-10802
▁썩지	-10803
▁썰물	-10804
▁얇게	-10805
▁여행	-10806
▁완료	-10807
▁이가	-10808
▁짐작	-10809
▁퍼올	-10810
▁펴고	-10811
▁프랑	-10812
▁감정이	-10813
▁계속되	-10814
▁그랬던	-10815
▁그랬지	-10816
▁그중에	-10817
▁금고가	-10818
▁김종선	-10819
▁놓았던	-10820
▁누르는	-10821
▁뒤주를	-10822
▁마친다	-10823
▁막내가	-10824
▁못하니	-10825
▁못하다	-10826
▁못했던	-10827
▁무거워	-10828
▁무게도	-10829
▁무게에	-10830
▁무게의	-10831
▁무결이	-10832
▁무기질	-10833
▁무대에	-10834
▁무뚝뚝	-10835
▁무르익	-10836
▁무리의	-10837
▁무병장	-10838
▁무분별	-10839
▁무색할	-10840
▁무섭다	-10841
▁무시할	-10842
▁무용지	-10843
▁무전을	-10844
▁무화과	-10845
▁문어다	-10846
▁문어를	-10847
▁문전성	-10848
▁문질러	-10849
▁묻어서	-10850
▁묻히고	-10851
▁물가에	-10852
▁물건은	-10853
▁물김치	-10854
▁물에서	-10855
▁물풍을	-10856
▁뭐하고	-10857
▁뭔가로	-10858
▁미끈한	-10859
▁미끼를	-10860
▁미네랄	-10861
▁미동도	-10862
▁미세한	-10863
▁미소가	-10864
▁민어가	-10865
▁믿는다	-10866
▁밀려서	-10867
▁밀어서	-10868
▁밑바닥	-10869
▁밑반찬	-10870
▁바가지	-10871
▁바꾸는	-10872
▁바꿔야	-10873
▁바뀌게	-10874
▁바뀌는	-10875
▁바닥과	-10876
▁바닥이	-10877
▁바람과	-10878
▁바람도	-10879
▁바람을	-10880
▁바르고	-10881
▁바르는	-10882
▁박선관	-10883
▁박종술	-10884
▁박혜도	-10885
▁밖에서	-10886
▁반갑다	-10887
▁반응을	-10888
▁반이다	-10889
▁반죽이	-10890
▁반지의	-10891
▁반찬이	-10892
▁받아들	-10893
▁받았다	-10894
▁받으며	-10895
▁받치는	-10896
▁발견할	-10897
▁발길을	-10898
▁발달에	-10899
▁발생한	-10900
▁발생할	-10901
▁발전기	-10902
▁발전을	-10903
▁발하는	-10904
▁발효가	-10905
▁발효된	-10906
▁발효를	-10907
▁밝으면	-10908
▁밤까지	-10909
▁밤늦게	-10910
▁밤이나	-10911
▁밤이다	-10912
▁밥보다	-10913
▁밥솥의	-10914
▁밧줄에	-10915
▁방목장	-10916
▁방문에	-10917
▁방울의	-10918
▁방지할	-10919
▁방탄유	-10920
▁배달에	-10921
▁배달을	-10922
▁배에서	-10923
▁배우게	-10924
▁배우기	-10925
▁배운다	-10926
▁배추가	-10927
▁배추를	-10928
▁백발의	-10929
▁백오십	-10930
▁백합은	-10931
▁밸브를	-10932
▁뱀들을	-10933
▁뱀들이	-10934
▁뱃일을	-10935
▁버려야	-10936
▁버려요	-10937
▁버릇이	-10938
▁버리고	-10939
▁버리러	-10940
▁버리죠	-10941
▁버섯의	-10942
▁번거롭	-10943
▁번이나	-10944
▁벌들을	-10945
▁벌목을	-10946
▁벌어다	-10947
▁벌어진	-10948
▁벌집의	-10949
▁벌통을	-10950
▁벌통의	-10951
▁법이다	-10952
▁벗기고	-10953
▁벗어나	-10954
▁벽체를	-10955
▁변신한	-10956
▁변질될	-10957
▁변하기	-10958
▁변하는	-10959
▁변하지	-10960
▁변화는	-10961
▁별미를	-10962
▁병원비	-10963
▁보겠다	-10964
▁보기도	-10965
▁보기엔	-10966
▁보내는	-10967
▁보내서	-10968
▁보네요	-10969
▁보는데	-10970
▁보릿대	-10971
▁보면은	-10972
▁보물인	-10973
▁보살피	-10974
▁보살필	-10975
▁보이며	-10976
▁보일러	-10977
▁보존된	-10978
▁보호자	-10979
▁복령에	-10980
▁복령을	-10981
▁복숭아	-10982
▁복쟁이	-10983
▁본연의	-10984
▁봉투에	-10985
▁봤는데	-10986
▁봤어요	-10987
▁부가가	-10988
▁부딪힐	-10989
▁부르면	-10990
▁부분만	-10991
▁부상을	-10992
▁부위에	-10993
▁부족한	-10994
▁부처손	-10995
▁부탁한	-10996
▁부품을	-10997
▁부화한	-10998
▁분류가	-10999
▁분리한	-11000
▁분봉을	-11001
▁분업이	-11002
▁분주한	-11003
▁불길을	-11004
▁불러도	-11005
▁불렸다	-11006
▁불맛을	-11007
▁불보기	-11008
▁불순물	-11009
▁불편해	-11010
▁붙여서	-11011
▁붙여진	-11012
▁블랙홀	-11013
▁블루길	-11014
▁비닐을	-11015
▁비법이	-11016
▁비빔밥	-11017
▁비용이	-11018
▁비타민	-11019
▁비하면	-11020
▁빈대떡	-11021
▁빛나는	-11022
▁빠뜨릴	-11023
▁빠르고	-11024
▁빠졌다	-11025
▁빠지면	-11026
▁빼곡히	-11027
▁빼내기	-11028
▁빼내는	-11029
▁뼈까지	-11030
▁뼈대를	-11031
▁뽀얗게	-11032
▁뽐내는	-11033
▁뽐내며	-11034
▁뾰족한	-11035
▁뿌린다	-11036
▁사고를	-11037
▁사과를	-11038
▁사교육	-11039
▁사냥꾼	-11040
▁사냥에	-11041
▁사니까	-11042
▁사람과	-11043
▁사람만	-11044
▁사랑꾼	-11045
▁사랑도	-11046
▁사랑이	-11047
▁사료는	-11048
▁사시는	-11049
▁사시면	-11050
▁사업은	-11051
▁사용해	-11052
▁사위는	-11053
▁사이다	-11054
▁사이렌	-11055
▁사이의	-11056
▁사이좋	-11057
▁산란을	-11058
▁산삼이	-11059
▁산새가	-11060
▁산속에	-11061
▁산양은	-11062
▁산양을	-11063
▁산업의	-11064
▁산에선	-11065
▁산이나	-11066
▁산중에	-11067
▁산천어	-11068
▁산청에	-11069
▁산행이	-11070
▁살겠어	-11071
▁살려고	-11072
▁살리는	-11073
▁살림만	-11074
▁살아도	-11075
▁살아서	-11076
▁살펴보	-11077
▁삼각형	-11078
▁삽시다	-11079
▁삽으로	-11080
▁삽주는	-11081
▁상대를	-11082
▁상쾌한	-11083
▁상품을	-11084
▁상했다	-11085
▁상황을	-11086
▁상황인	-11087
▁새기는	-11088
▁새조개	-11089
▁색깔의	-11090
▁색상이	-11091
▁생겨요	-11092
▁생기가	-11093
▁생기고	-11094
▁생명이	-11095
▁생산되	-11096
▁생선과	-11097
▁생지황	-11098
▁생활비	-11099
▁생활이	-11100
▁서울이	-11101
▁서툴게	-11102
▁서툴다	-11103
▁석청을	-11104
▁석청이	-11105
▁섞는다	-11106
▁선박의	-11107
▁선별해	-11108
▁선사한	-11109
▁선원이	-11110
▁선택한	-11111
▁섣불리	-11112
▁설치할	-11113
▁설탕과	-11114
▁섬세함	-11115
▁섬이다	-11116
▁성격은	-11117
▁성공한	-11118
▁성공할	-11119
▁성복호	-11120
▁성충이	-11121
▁세계가	-11122
▁세계에	-11123
▁세밀한	-11124
▁세습정	-11125
▁세우고	-11126
▁세우기	-11127
▁세월의	-11128
▁세척기	-11129
▁소금도	-11130
▁소금의	-11131
▁소득이	-11132
▁소라가	-11133
▁소리는	-11134
▁소리다	-11135
▁소리로	-11136
▁소리만	-11137
▁소리와	-11138
▁소문난	-11139
▁소셜미	-11140
▁소스를	-11141
▁소식에	-11142
▁소식을	-11143
▁소용이	-11144
▁소원이	-11145
▁소질이	-11146
▁속내를	-11147
▁속도가	-11148
▁속도를	-11149
▁속살을	-11150
▁손바닥	-11151
▁손쉽게	-11152
▁손에서	-11153
▁손자는	-11154
▁손잡이	-11155
▁손질된	-11156
▁손질에	-11157
▁손질할	-11158
▁손질해	-11159
▁솔직히	-11160
▁솜씨가	-11161
▁솜씨도	-11162
▁솜털이	-11163
▁쇳물은	-11164
▁수려한	-11165
▁수령이	-11166
▁수색견	-11167
▁수석꾼	-11168
▁수심에	-11169
▁수십만	-11170
▁수액을	-11171
▁수액이	-11172
▁수업을	-11173
▁수없이	-11174
▁수온이	-11175
▁수요에	-11176
▁수익이	-11177
▁수입산	-11178
▁수준이	-11179
▁수천만	-11180
▁수풀로	-11181
▁수풀이	-11182
▁수험생	-11183
▁수확은	-11184
▁수확할	-11185
▁숙성된	-11186
▁숙성이	-11187
▁순간에	-11188
▁순서를	-11189
▁순수한	-11190
▁순은이	-11191
▁숲에서	-11192
▁쉬려고	-11193
▁쉬지도	-11194
▁쉽지는	-11195
▁스스럼	-11196
▁스포츠	-11197
▁습도가	-11198
▁시골로	-11199
▁시골이	-11200
▁시기를	-11201
▁시내에	-11202
▁시대를	-11203
▁시대의	-11204
▁시력을	-11205
▁시리다	-11206
▁시멘트	-11207
▁시절이	-11208
▁식기로	-11209
▁식당은	-11210
▁식물이	-11211
▁식사가	-11212
▁식사는	-11213
▁식초를	-11214
▁식혜를	-11215
▁식히는	-11216
▁신경질	-11217
▁신경통	-11218
▁신선도	-11219
▁신중할	-11220
▁싣는다	-11221
▁심기가	-11222
▁심신을	-11223
▁심어야	-11224
▁심해지	-11225
▁싶다고	-11226
▁싸움을	-11227
▁싸움이	-11228
▁싹대를	-11229
▁쏘이면	-11230
▁쏟는다	-11231
▁쓰였던	-11232
▁쓰이는	-11233
▁쓰이지	-11234
▁씁쓸한	-11235
▁씨앗이	-11236
▁씹었을	-11237
▁씻어내	-11238
▁씻어야	-11239
▁씻으면	-11240
▁아까는	-11241
▁아까운	-11242
▁아끼고	-11243
▁아내인	-11244
▁아는데	-11245
▁아는지	-11246
▁아니요	-11247
▁아들도	-11248
▁아래로	-11249
▁아마도	-11250
▁아무나	-11251
▁아쉽다	-11252
▁아이는	-11253
▁아이템	-11254
▁아프면	-11255
▁아픈데	-11256
▁아픔을	-11257
▁안도의	-11258
▁안돼요	-11259
▁안되는	-11260
▁안드리	-11261
▁안전을	-11262
▁안주인	-11263
▁않나요	-11264
▁않는데	-11265
▁않아야	-11266
▁않았죠	-11267
▁알갱이	-11268
▁알겠다	-11269
▁알마는	-11270
▁알아듣	-11271
▁알아요	-11272
▁알지요	-11273
▁암컷은	-11274
▁앞뒤로	-11275
▁앞서는	-11276
▁앞이나	-11277
▁애당초	-11278
▁애들은	-11279
▁애쓰고	-11280
▁애타는	-11281
▁액체가	-11282
▁야구를	-11283
▁야생의	-11284
▁약방에	-11285
▁약방은	-11286
▁약방을	-11287
▁약성을	-11288
▁약초라	-11289
▁약초인	-11290
▁약품이	-11291
▁약하다	-11292
▁양념을	-11293
▁양망이	-11294
▁양보도	-11295
▁양식이	-11296
▁양으로	-11297
▁양이면	-11298
▁어구를	-11299
▁어긋난	-11300
▁어깨가	-11301
▁어깨를	-11302
▁어두워	-11303
▁어둠이	-11304
▁어디가	-11305
▁어디든	-11306
▁어떠한	-11307
▁어떡해	-11308
▁어떤지	-11309
▁어려서	-11310
▁어렸을	-11311
▁어묵을	-11312
▁어부가	-11313
▁어부의	-11314
▁어색한	-11315
▁어선을	-11316
▁어저께	-11317
▁어종은	-11318
▁어지럽	-11319
▁어쩌다	-11320
▁어쩌면	-11321
▁어차피	-11322
▁어획량	-11323
▁억지로	-11324
▁언니도	-11325
▁얻어낸	-11326
▁얼굴만	-11327
▁얼굴이	-11328
▁얼큰한	-11329
▁엄격한	-11330
▁업로드	-11331
▁없겠다	-11332
▁없나요	-11333
▁없애고	-11334
▁없애는	-11335
▁없어도	-11336
▁없이는	-11337
▁엉뚱한	-11338
▁엎드려	-11339
▁엔진이	-11340
▁여름날	-11341
▁여름을	-11342
▁여름이	-11343
▁여자가	-11344
▁여자는	-11345
▁역사는	-11346
▁연수가	-11347
▁연옥은	-11348
▁연하게	-11349
▁열기에	-11350
▁열리고	-11351
▁열었다	-11352
▁열정을	-11353
▁열처리	-11354
▁염료를	-11355
▁염색할	-11356
▁영리한	-11357
▁영양을	-11358
▁영역을	-11359
▁영천강	-11360
▁영향을	-11361
▁옆구리	-11362
▁예기치	-11363
▁예쁘지	-11364
▁예인선	-11365
▁예찬이	-11366
▁옛날엔	-11367
▁오남매	-11368
▁오네요	-11369
▁오는지	-11370
▁오늬를	-11371
▁오르기	-11372
▁오묘한	-11373
▁오십사	-11374
▁오장훈	-11375
▁오토바	-11376
▁옥이다	-11377
▁온도와	-11378
▁올게요	-11379
▁올라갈	-11380
▁올라갔	-11381
▁올랐다	-11382
▁올려둔	-11383
▁올린다	-11384
▁옮겼다	-11385
▁옷들을	-11386
▁완벽한	-11387
▁완성한	-11388
▁왔는데	-11389
▁왔으니	-11390
▁왔지만	-11391
▁왕실의	-11392
▁외로운	-11393
▁외롭게	-11394
▁외에는	-11395
▁요리사	-11396
▁요리의	-11397
▁요리해	-11398
▁요즘엔	-11399
▁욕심에	-11400
▁욕조를	-11401
▁용도로	-11402
▁용돈도	-11403
▁용액을	-11404
▁용왕님	-11405
▁우도는	-11406
▁우수수	-11407
▁우신이	-11408
▁우정을	-11409
▁운동도	-11410
▁운동화	-11411
▁웃음을	-11412
▁원료로	-11413
▁원목을	-11414
▁원액이	-11415
▁원이면	-11416
▁원형의	-11417
▁원활한	-11418
▁위치에	-11419
▁위하여	-11420
▁위험과	-11421
▁유리와	-11422
▁유리창	-11423
▁유부도	-11424
▁유순자	-11425
▁유심히	-11426
▁유약이	-11427
▁유지가	-11428
▁유통을	-11429
▁유황을	-11430
▁유황의	-11431
▁육수가	-11432
▁육중한	-11433
▁육즙이	-11434
▁육지로	-11435
▁윤종성	-11436
▁은괴가	-11437
▁은빗이	-11438
▁은은한	-11439
▁은판을	-11440
▁음미할	-11441
▁읍내에	-11442
▁응급처	-11443
▁의견을	-11444
▁이것의	-11445
▁이기지	-11446
▁이들은	-11447
▁이래서	-11448
▁이런데	-11449
▁이름도	-11450
▁이만한	-11451
▁이빨에	-11452
▁이상을	-11453
▁이상이	-11454
▁이어진	-11455
▁이에요	-11456
▁이용을	-11457
▁이용한	-11458
▁이웃을	-11459
▁이유를	-11460
▁이음새	-11461
▁이전의	-11462
▁이창욱	-11463
▁이해할	-11464
▁익어서	-11465
▁인공재	-11466
▁인기를	-11467
▁인내가	-11468
▁인내심	-11469
▁인도네	-11470
▁인생도	-11471
▁인정받	-11472
▁인테리	-11473
▁일과를	-11474
▁일부러	-11475
▁일손을	-11476
▁일어난	-11477
▁일이든	-11478
▁일이야	-11479
▁일인데	-11480
▁일일까	-11481
▁일제히	-11482
▁일종인	-11483
▁일품이	-11484
▁일품인	-11485
▁일하면	-11486
▁잃었다	-11487
▁임상균	-11488
▁임성동	-11489
▁임정근	-11490
▁입구가	-11491
▁입맛을	-11492
▁입었다	-11493
▁입자가	-11494
▁입항을	-11495
▁있게끔	-11496
▁있겠다	-11497
▁있기는	-11498
▁있던지	-11499
▁있으나	-11500
▁잉크를	-11501
▁자개의	-11502
▁자격증	-11503
▁자국이	-11504
▁자기야	-11505
▁자라기	-11506
▁자라며	-11507
▁자라면	-11508
▁자라야	-11509
▁자루를	-11510
▁자르면	-11511
▁자른다	-11512
▁자리는	-11513
▁자부심	-11514
▁자세를	-11515
▁자연은	-11516
▁자정을	-11517
▁자태를	-11518
▁작두로	-11519
▁작물이	-11520
▁작품은	-11521
▁작품을	-11522
▁작품의	-11523
▁잔뿌리	-11524
▁잔치를	-11525
▁잘되고	-11526
▁잘되는	-11527
▁잘라낼	-11528
▁잘라야	-11529
▁잘라진	-11530
▁잘랐을	-11531
▁잘려진	-11532
▁잘못을	-11533
▁잘못했	-11534
▁잘하고	-11535
▁잘해야	-11536
▁잠깐의	-11537
▁잡기로	-11538
▁잡아당	-11539
▁잡아먹	-11540
▁잡아서	-11541
▁잡으면	-11542
▁잡혔다	-11543
▁잣나무	-11544
▁장갑도	-11545
▁장갑을	-11546
▁장비가	-11547
▁장비도	-11548
▁장사를	-11549
▁장산도	-11550
▁장소가	-11551
▁장으로	-11552
▁장치는	-11553
▁재단된	-11554
▁재료는	-11555
▁재료를	-11556
▁재료인	-11557
▁재배산	-11558
▁재작년	-11559
▁재킷이	-11560
▁저것은	-11561
▁저기로	-11562
▁저녁에	-11563
▁저녁을	-11564
▁저하고	-11565
▁저한테	-11566
▁저희는	-11567
▁전국의	-11568
▁전기를	-11569
▁전기톱	-11570
▁전설이	-11571
▁전성기	-11572
▁전어다	-11573
▁전어를	-11574
▁전체가	-11575
▁전통과	-11576
▁전통방	-11577
▁전해져	-11578
▁전화가	-11579
▁점성을	-11580
▁점성이	-11581
▁점이다	-11582
▁젓갈용	-11583
▁정도가	-11584
▁정성과	-11585
▁정신을	-11586
▁정신이	-11587
▁정치망	-11588
▁젖었다	-11589
▁제각각	-11590
▁제거가	-11591
▁제거한	-11592
▁제부가	-11593
▁제작에	-11594
▁제작할	-11595
▁제품을	-11596
▁조각에	-11597
▁조금은	-11598
▁조기는	-11599
▁조리기	-11600
▁조리법	-11601
▁조릿대	-11602
▁조업은	-11603
▁조절이	-11604
▁조카가	-11605
▁존재다	-11606
▁좀전의	-11607
▁종기가	-11608
▁종류는	-11609
▁종류만	-11610
▁좋네요	-11611
▁좋아지	-11612
▁주금화	-11613
▁주꾸미	-11614
▁주낙은	-11615
▁주문을	-11616
▁주물러	-11617
▁주방용	-11618
▁죽어도	-11619
▁죽어버	-11620
▁줄기가	-11621
▁줄기를	-11622
▁줄기와	-11623
▁줄무늬	-11624
▁중간중	-11625
▁중량을	-11626
▁중심에	-11627
▁중심을	-11628
▁중요해	-11629
▁중턱에	-11630
▁줘야지	-11631
▁줬어요	-11632
▁즐겁게	-11633
▁즐기는	-11634
▁지게를	-11635
▁지나가	-11636
▁지나갔	-11637
▁지나지	-11638
▁지네는	-11639
▁지네의	-11640
▁지리산	-11641
▁지붕을	-11642
▁지어야	-11643
▁지역에	-11644
▁지으며	-11645
▁지천에	-11646
▁지켜본	-11647
▁지켜야	-11648
▁지키며	-11649
▁지킨다	-11650
▁지폐는	-11651
▁직업을	-11652
▁직장을	-11653
▁진액은	-11654
▁진정한	-11655
▁진짜로	-11656
▁진행된	-11657
▁질환에	-11658
▁집안일	-11659
▁집어삼	-11660
▁집에는	-11661
▁집에도	-11662
▁집이다	-11663
▁짜증도	-11664
▁쫄깃한	-11665
▁쫓기는	-11666
▁찍어서	-11667
▁찍으면	-11668
▁찜으로	-11669
▁찜통에	-11670
▁찢어져	-11671
▁차가는	-11672
▁차까지	-11673
▁차리는	-11674
▁차성호	-11675
▁찬물에	-11676
▁참숯을	-11677
▁참외도	-11678
▁참외를	-11679
▁참치를	-11680
▁참치의	-11681
▁창고에	-11682
▁창문을	-11683
▁찾아라	-11684
▁찾아서	-11685
▁찾아온	-11686
▁채웠다	-11687
▁채웠던	-11688
▁채집한	-11689
▁채취에	-11690
▁천문동	-11691
▁천문학	-11692
▁천연의	-11693
▁철광석	-11694
▁철망에	-11695
▁철사를	-11696
▁첨가물	-11697
▁청소를	-11698
▁쳤다는	-11699
▁초대형	-11700
▁초록색	-11701
▁초원의	-11702
▁촉각을	-11703
▁최상품	-11704
▁최후를	-11705
▁추격전	-11706
▁추억은	-11707
▁추억을	-11708
▁추위가	-11709
▁추위를	-11710
▁추자의	-11711
▁추출한	-11712
▁축사에	-11713
▁축축한	-11714
▁춘란의	-11715
▁출입이	-11716
▁출퇴근	-11717
▁충격에	-11718
▁취하고	-11719
▁치워야	-11720
▁치하를	-11721
▁친환경	-11722
▁칠하고	-11723
▁칼질을	-11724
▁커진다	-11725
▁코팅을	-11726
▁크기도	-11727
▁크기면	-11728
▁크기와	-11729
▁크다고	-11730
▁클수록	-11731
▁큽니다	-11732
▁키우면	-11733
▁키워낸	-11734
▁키워서	-11735
▁키웠다	-11736
▁타격이	-11737
▁타들어	-11738
▁타조를	-11739
▁탄다고	-11740
▁탈출에	-11741
▁탕이나	-11742
▁태우는	-11743
▁태풍이	-11744
▁터득한	-11745
▁터졌다	-11746
▁털어내	-11747
▁테이블	-11748
▁토사자	-11749
▁토종닭	-11750
▁톱날을	-11751
▁톱밥을	-11752
▁톱질을	-11753
▁통발에	-11754
▁통으로	-11755
▁통장을	-11756
▁통증이	-11757
▁통하는	-11758
▁통하지	-11759
▁퇴근을	-11760
▁투망한	-11761
▁튕겨져	-11762
▁트랙터	-11763
▁트럭을	-11764
▁특성을	-11765
▁특성이	-11766
▁특징을	-11767
▁특허도	-11768
▁특히나	-11769
▁틈조차	-11770
▁틈틈이	-11771
▁파낸다	-11772
▁파도가	-11773
▁파도를	-11774
▁파도에	-11775
▁파스타	-11776
▁판으로	-11777
▁판정을	-11778
▁팔기도	-11779
▁팔순의	-11780
▁팔아도	-11781
▁팔아서	-11782
▁팽팽한	-11783
▁퍼센트	-11784
▁퍼진다	-11785
▁펴진다	-11786
▁편안한	-11787
▁편하지	-11788
▁평상시	-11789
▁평생의	-11790
▁평소에	-11791
▁평소와	-11792
▁평평한	-11793
▁포장마	-11794
▁포획단	-11795
▁폭우로	-11796
▁표면이	-11797
▁표현할	-11798
▁풀린다	-11799
▁피로가	-11800
▁피부가	-11801
▁피우고	-11802
▁피하는	-11803
▁피해는	-11804
▁필리핀	-11805
▁필요가	-11806
▁핑계로	-11807
▁하겠죠	-11808
▁하기를	-11809
▁하나는	-11810
▁하나둘	-11811
▁하나면	-11812
▁하나요	-11813
▁하늘의	-11814
▁하늘이	-11815
▁하셨다	-11816
▁하잖아	-11817
▁한계를	-11818
▁한구석	-11819
▁한국에	-11820
▁한숨을	-11821
▁한시름	-11822
▁한약재	-11823
▁한지다	-11824
▁한지의	-11825
▁한쪽에	-11826
▁한창인	-11827
▁한치의	-11828
▁할려고	-11829
▁할매의	-11830
▁할지도	-11831
▁함유된	-11832
▁합시다	-11833
▁항구에	-11834
▁해내는	-11835
▁해마다	-11836
▁해역을	-11837
▁해왔다	-11838
▁해줘요	-11839
▁해치고	-11840
▁해풍을	-11841
▁햇빛을	-11842
▁햇살을	-11843
▁했구나	-11844
▁했던가	-11845
▁했었다	-11846
▁행동을	-11847
▁행동이	-11848
▁행복해	-11849
▁향했다	-11850
▁허가를	-11851
▁허락한	-11852
▁허리에	-11853
▁허투루	-11854
▁험준한	-11855
▁험하고	-11856
▁헤매던	-11857
▁헤아려	-11858
▁헤아리	-11859
▁현실의	-11860
▁현실이	-11861
▁형님의	-11862
▁형님이	-11863
▁형부는	-11864
▁형성이	-11865
▁형편은	-11866
▁호사를	-11867
▁호스를	-11868
▁호출을	-11869
▁호텔의	-11870
▁호흡도	-11871
▁호흡을	-11872
▁혹독한	-11873
▁혹으로	-11874
▁혹한의	-11875
▁혼자가	-11876
▁혼자는	-11877
▁홍게를	-11878
▁홍어와	-11879
▁홍어의	-11880
▁홍합을	-11881
▁화로를	-11882
▁화물차	-11883
▁화살도	-11884
▁화제를	-11885
▁화투를	-11886
▁확연히	-11887
▁확인이	-11888
▁확인한	-11889
▁환경을	-11890
▁환경이	-11891
▁활어용	-11892
▁황금빛	-11893
▁황칠은	-11894
▁황칠을	-11895
▁황태덕	-11896
▁황토는	-11897
▁회관에	-11898
▁회복에	-11899
▁회복을	-11900
▁효과에	-11901
▁효소로	-11902
▁후각이	-11903
▁훌륭한	-11904
▁휘저어	-11905
▁휴가는	-11906
▁흐트러	-11907
▁흘러내	-11908
▁흘리며	-11909
▁흙에도	-11910
▁흙으로	-11911
▁희귀한	-11912
▁힘드시	-11913
▁힘들지	-11914
▁힘쓰는	-11915
개월에서	-11916
구잡이로	-11917
냈습니다	-11918
드릴게요	-11919
드릴까요	-11920
드립니다	-11921
라인더를	-11922
렸다가는	-11923
만으로는	-11924
머스켓을	-11925
물입니다	-11926
방향으로	-11927
버렸네요	-11928
본초강목	-11929
사이에서	-11930
센티미터	-11931
스러웠다	-11932
시간이든	-11933
시대부터	-11934
시켜주는	-11935
시킵니다	-11936
식품으로	-11937
어버려요	-11938
여분만에	-11939
였습니다	-11940
왔습니다	-11941
우면서도	-11942
월까지가	-11943
웠습니다	-11944
으니까요	-11945
으로서의	-11946
이거든요	-11947
이라면서	-11948
장애인이	-11949
적이에요	-11950
중에서도	-11951
초강목에	-11952
콤달콤한	-11953
킬로미터	-11954
하겠다는	-11955
하는데도	-11956
하다보니	-11957
하시니까	-11958
하신다고	-11959
해야한다	-11960
해주어야	-11961
해진다고	-11962
했는데도	-11963
▁1500	-11964
▁1700	-11965
▁2002	-11966
▁2007	-11967
▁2013	-11968
▁4000	-11969
▁가게에서	-11970
▁가격까지	-11971
▁가격이다	-11972
▁가능하게	-11973
▁가다듬고	-11974
▁가리비는	-11975
▁가마솥이	-11976
▁가마에서	-11977
▁가만있어	-11978
▁가시덤불	-11979
▁가운데에	-11980
▁가져가면	-11981
▁간직하고	-11982
▁갈아낸다	-11983
▁갈아입고	-11984
▁갈치잡이	-11985
▁갑판으로	-11986
▁값어치가	-11987
▁갯벌에는	-11988
▁갯벌에서	-11989
▁거거든요	-11990
▁거니까요	-11991
▁거잖아요	-11992
▁거짓말을	-11993
▁거쳐야만	-11994
▁거푸집의	-11995
▁걱정으로	-11996
▁건강해야	-11997
▁건더덕을	-11998
▁걸렸다고	-11999
▁걸리니까	-12000
▁걸어간다	-12001
▁걸음으로	-12002
▁것만으로	-12003
▁것이지만	-12004
▁겨울에는	-12005
▁결국에는	-12006
▁결정되는	-12007
▁결정하는	-12008
▁경력에도	-12009
▁경상남도	-12010
▁경승용차	-12011
▁경옥고의	-12012
▁계시니까	-12013
▁계획이다	-12014
▁고등어의	-12015
▁고등학교	-12016
▁고등학생	-12017
▁고마워요	-12018
▁고민하고	-12019
▁고사리를	-12020
▁고생해서	-12021
▁고생했다	-12022
▁고속도로	-12023
▁고슬고슬	-12024
▁고정한다	-12025
▁고혈압과	-12026
▁골라내는	-12027
▁곳곳에서	-12028
▁공개되는	-12029
▁공장이다	-12030
▁공판장에	-12031
▁과학적인	-12032
▁관리하고	-12033
▁관절이나	-12034
▁구석구석	-12035
▁구워내야	-12036
▁국그릇에	-12037
▁국내에서	-12038
▁국내에선	-12039
▁군대에서	-12040
▁굴삭기가	-12041
▁굴참나무	-12042
▁궁금해서	-12043
▁귀하다는	-12044
▁그곳부터	-12045
▁그때부터	-12046
▁그래야지	-12047
▁그랬더니	-12048
▁그랬어요	-12049
▁그러다가	-12050
▁그러세요	-12051
▁그러시는	-12052
▁그럴까요	-12053
▁그럽니다	-12054
▁그리고는	-12055
▁그만하고	-12056
▁그물들이	-12057
▁그물마다	-12058
▁그물에는	-12059
▁금값보다	-12060
▁금란씨는	-12061
▁금물이다	-12062
▁금지한다	-12063
▁급해졌다	-12064
▁급해진다	-12065
▁기계보다	-12066
▁기계에서	-12067
▁기다렸다	-12068
▁기다렸던	-12069
▁기다리던	-12070
▁기다리면	-12071
▁기름기가	-12072
▁기름으로	-12073
▁기본이다	-12074
▁기울이는	-12075
▁기원하는	-12076
▁깊어간다	-12077
▁깨끗해서	-12078
▁꽃벵이를	-12079
▁꽃벵이만	-12080
▁끌어올려	-12081
▁끓여내는	-12082
▁나간다고	-12083
▁나거든요	-12084
▁나무들을	-12085
▁나오면서	-12086
▁나온다고	-12087
▁나와있다	-12088
▁나왔나요	-12089
▁나이에도	-12090
▁나타난다	-12091
▁낚시줄을	-12092
▁낚싯줄을	-12093
▁낚아채고	-12094
▁난리인지	-12095
▁남들보다	-12096
▁남숙씨는	-12097
▁남아있는	-12098
▁남짓이다	-12099
▁납작하게	-12100
▁낫잖아요	-12101
▁났습니다	-12102
▁내구성이	-12103
▁내년부터	-12104
▁내년에가	-12105
▁내려가는	-12106
▁내려오고	-12107
▁내리사랑	-12108
▁내어준다	-12109
▁내장까지	-12110
▁냉장고를	-12111
▁너무나도	-12112
▁넘어가고	-12113
▁넘어져도	-12114
▁넘어졌다	-12115
▁넘어지면	-12116
▁넣습니다	-12117
▁넣어주고	-12118
▁노력하고	-12119
▁노력하는	-12120
▁노력해서	-12121
▁노리개를	-12122
▁노리개의	-12123
▁노출되어	-12124
▁노폐물이	-12125
▁노하우가	-12126
▁노하우는	-12127
▁놀라움을	-12128
▁놀랍게도	-12129
▁농가들이	-12130
▁농기구를	-12131
▁농민들의	-12132
▁농사짓는	-12133
▁농장에서	-12134
▁농장으로	-12135
▁높여주는	-12136
▁누군가는	-12137
▁눈다랑어	-12138
▁눈보라가	-12139
▁느껴지는	-12140
▁느릿느릿	-12141
▁느티나무	-12142
▁늑대몰이	-12143
▁늑대사냥	-12144
▁늑대일까	-12145
▁늘어나고	-12146
▁늘어났다	-12147
▁늙을수록	-12148
▁늦어졌다	-12149
▁다가오는	-12150
▁다녔는데	-12151
▁다니면서	-12152
▁다름없다	-12153
▁다칩니다	-12154
▁닥나무에	-12155
▁단백질과	-12156
▁단백질이	-12157
▁단청이다	-12158
▁달콤하지	-12159
▁담당하는	-12160
▁담쟁이는	-12161
▁당겨본다	-12162
▁당겨졌다	-12163
▁당나귀는	-12164
▁당신하고	-12165
▁대구에는	-12166
▁대나무가	-12167
▁대단하다	-12168
▁대리석을	-12169
▁대리석의	-12170
▁대부분의	-12171
▁대부분이	-12172
▁대해서는	-12173
▁더군다나	-12174
▁더미에서	-12175
▁더해준다	-12176
▁더해진다	-12177
▁덕분이다	-12178
▁덮어준다	-12179
▁데이터를	-12180
▁도구들이	-12181
▁도라지는	-12182
▁도라지와	-12183
▁도라지의	-12184
▁도사리고	-12185
▁도와주고	-12186
▁도우면서	-12187
▁도토리를	-12188
▁독도에서	-12189
▁돈으로도	-12190
▁돌려본다	-12191
▁돌봐주고	-12192
▁돌소금에	-12193
▁돌아가면	-12194
▁돌아가신	-12195
▁돌아가지	-12196
▁돌아다니	-12197
▁돌아다닐	-12198
▁돌아보지	-12199
▁돌아선다	-12200
▁돌아오기	-12201
▁돌아오자	-12202
▁동면에서	-12203
▁동쪽으로	-12204
▁동혁씨는	-12205
▁되겠네요	-12206
▁되기까지	-12207
▁되는데요	-12208
▁되니까요	-12209
▁되셨어요	-12210
▁두께까지	-12211
▁두둑하게	-12212
▁둘러본다	-12213
▁둘러봐도	-12214
▁뒤로하고	-12215
▁드라이버	-12216
▁드러난다	-12217
▁드릴까요	-12218
▁든든하다	-12219
▁들어가기	-12220
▁들어본다	-12221
▁들어선다	-12222
▁들어올려	-12223
▁들어있을	-12224
▁들었어요	-12225
▁등장했다	-12226
▁딱딱하게	-12227
▁딱딱하고	-12228
▁땅바닥에	-12229
▁때까지는	-12230
▁때만큼은	-12231
▁떨어져서	-12232
▁뛰어나다	-12233
▁러시아와	-12234
▁러시아의	-12235
▁마누라가	-12236
▁마리라도	-12237
▁마무리할	-12238
▁마스크를	-12239
▁마을이다	-12240
▁마음까지	-12241
▁막대기를	-12242
▁막대기에	-12243
▁막막하다	-12244
▁만끽하는	-12245
▁만드는데	-12246
▁만든다고	-12247
▁만들려고	-12248
▁만들어낸	-12249
▁만들어도	-12250
▁만들어온	-12251
▁만큼이나	-12252
▁많으니까	-12253
▁말끔하게	-12254
▁말라니까	-12255
▁말벌집을	-12256
▁맛이에요	-12257
▁맛있다고	-12258
▁망치질로	-12259
▁맞습니다	-12260
▁맞춤으로	-12261
▁매일매일	-12262
▁매장되어	-12263
▁머리카락	-12264
▁머릿속이	-12265
▁먹는다는	-12266
▁먹어본다	-12267
▁먹어야지	-12268
▁먹이사슬	-12269
▁먹잖아요	-12270
▁메밀생황	-12271
▁메워준다	-12272
▁멧돼지의	-12273
▁며느리를	-12274
▁면역력이	-12275
▁멸종위기	-12276
▁멸치잡이	-12277
▁명숙씨는	-12278
▁명숙씨의	-12279
▁모르니까	-12280
▁모르지만	-12281
▁모습들을	-12282
▁모습으로	-12283
▁모양으로	-12284
▁목소리가	-12285
▁목적으로	-12286
▁몸이라도	-12287
▁못하면서	-12288
▁못했어요	-12289
▁못했었다	-12290
▁몽골에서	-12291
▁몽둥이로	-12292
▁무거워서	-12293
▁무거워요	-12294
▁무릅쓰고	-12295
▁무리해서	-12296
▁무엇인가	-12297
▁무인도는	-12298
▁묵묵하게	-12299
▁묵을수록	-12300
▁물론이고	-12301
▁물메기가	-12302
▁물메기의	-12303
▁물속에서	-12304
▁미끄러지	-12305
▁미나리가	-12306
▁미안하고	-12307
▁미역국도	-12308
▁미연씨는	-12309
▁민간에서	-12310
▁민물고기	-12311
▁밀려온다	-12312
▁밑그림이	-12313
▁바깥에서	-12314
▁바닷물로	-12315
▁바닷일과	-12316
▁바라보는	-12317
▁바로바로	-12318
▁바빠졌다	-12319
▁바삭바삭	-12320
▁박동인씨	-12321
▁박혀있는	-12322
▁반가움도	-12323
▁반복한다	-12324
▁반죽으로	-12325
▁받았지만	-12326
▁발걸음도	-12327
▁발견되기	-12328
▁발견되면	-12329
▁발견된다	-12330
▁발견하지	-12331
▁발라준다	-12332
▁발생한다	-12333
▁발전기는	-12334
▁발효시킨	-12335
▁밤낮으로	-12336
▁방범유리	-12337
▁방법으로	-12338
▁방식으로	-12339
▁방탄유리	-12340
▁백향과를	-12341
▁버립니다	-12342
▁번거롭게	-12343
▁번식하면	-12344
▁벗겨져요	-12345
▁병원에서	-12346
▁보관하면	-12347
▁보금자리	-12348
▁보나마나	-12349
▁보냈어요	-12350
▁보석으로	-12351
▁보아하니	-12352
▁보양식에	-12353
▁보여준다	-12354
▁보이네요	-12355
▁보이지도	-12356
▁보존하고	-12357
▁보행기를	-12358
▁복어알젓	-12359
▁복용하는	-12360
▁복잡하게	-12361
▁부드러워	-12362
▁부러지고	-12363
▁부러지는	-12364
▁부모님께	-12365
▁부모님도	-12366
▁부모님은	-12367
▁부부에게	-12368
▁부부이다	-12369
▁부분들이	-12370
▁부었어요	-12371
▁부처손이	-12372
▁부탁드리	-12373
▁부탁했다	-12374
▁분리되는	-12375
▁분위기를	-12376
▁분주하게	-12377
▁불구하고	-12378
▁불도저를	-12379
▁불량으로	-12380
▁불로괴는	-12381
▁불로괴를	-12382
▁불순물을	-12383
▁불안하지	-12384
▁불편하다	-12385
▁붙어있던	-12386
▁블루베리	-12387
▁비결이다	-12388
▁비린내가	-12389
▁비법이다	-12390
▁비슷하다	-12391
▁빈틈없이	-12392
▁빗자루를	-12393
▁빠졌다고	-12394
▁빨라졌다	-12395
▁빨라진다	-12396
▁빨래까지	-12397
▁뿌려준다	-12398
▁사각어묵	-12399
▁사다리가	-12400
▁사로잡는	-12401
▁사시사철	-12402
▁사용하면	-12403
▁사용했다	-12404
▁사이즈로	-12405
▁사장님은	-12406
▁사장님의	-12407
▁산삼고가	-12408
▁산삼보다	-12409
▁산속에서	-12410
▁산에서는	-12411
▁산청으로	-12412
▁살아가는	-12413
▁살아난다	-12414
▁삶아줘야	-12415
▁상사거리	-12416
▁상온에서	-12417
▁상인들의	-12418
▁상징하는	-12419
▁상책이다	-12420
▁상태라서	-12421
▁새삼덩굴	-12422
▁생각으로	-12423
▁생각지도	-12424
▁생각해서	-12425
▁생김새가	-12426
▁생김새와	-12427
▁생때같은	-12428
▁생물들이	-12429
▁생산되는	-12430
▁생태계를	-12431
▁생활비가	-12432
▁생활하는	-12433
▁생활한다	-12434
▁서두르는	-12435
▁서둘러야	-12436
▁서운하지	-12437
▁서운함이	-12438
▁서운해요	-12439
▁선명하게	-12440
▁선별해서	-12441
▁선사하는	-12442
▁선생님이	-12443
▁선원이다	-12444
▁설상가상	-12445
▁섬에서는	-12446
▁성공했다	-12447
▁성분들이	-12448
▁성우씨가	-12449
▁성큼성큼	-12450
▁세계에서	-12451
▁세계적인	-12452
▁소금마을	-12453
▁소나무는	-12454
▁소나무만	-12455
▁소비되는	-12456
▁소중하게	-12457
▁소중함을	-12458
▁속마음이	-12459
▁속상하다	-12460
▁속상해서	-12461
▁속상해요	-12462
▁손가락을	-12463
▁손끝에서	-12464
▁손님들의	-12465
▁손님상에	-12466
▁손님으로	-12467
▁손으로는	-12468
▁손자에게	-12469
▁손잡이를	-12470
▁손주들을	-12471
▁송담이다	-12472
▁수상하다	-12473
▁수액으로	-12474
▁수액이다	-12475
▁수월하다	-12476
▁수확이다	-12477
▁순금으로	-12478
▁순찰대의	-12479
▁숭어떼를	-12480
▁숯가마에	-12481
▁시간과의	-12482
▁시간까지	-12483
▁시간인데	-12484
▁시기에는	-12485
▁시대라고	-12486
▁시부모님	-12487
▁시원하게	-12488
▁시작으로	-12489
▁시작하고	-12490
▁시절부터	-12491
▁시집와서	-12492
▁식당에서	-12493
▁신문지를	-12494
▁신중하게	-12495
▁신중하다	-12496
▁실제로는	-12497
▁싫어하는	-12498
▁싶습니다	-12499
▁싶었어요	-12500
▁싸움이다	-12501
▁쌀독부터	-12502
▁쏟아진다	-12503
▁쓰입니다	-12504
▁씨입니다	-12505
▁아궁이에	-12506
▁아니라고	-12507
▁아니었다	-12508
▁아니잖아	-12509
▁아닙니까	-12510
▁아들까지	-12511
▁아래까지	-12512
▁아래에선	-12513
▁아버님의	-12514
▁아버님이	-12515
▁아빠한테	-12516
▁아이들을	-12517
▁아찔하다	-12518
▁아침마다	-12519
▁아침에도	-12520
▁안간힘을	-12521
▁안내한다	-12522
▁않는다는	-12523
▁않았는데	-12524
▁않으세요	-12525
▁알려졌다	-12526
▁알려줘야	-12527
▁알면서도	-12528
▁알아주지	-12529
▁알았어요	-12530
▁앞에서는	-12531
▁야생에서	-12532
▁야속하다	-12533
▁약초꾼들	-12534
▁약초들이	-12535
▁얘기하자	-12536
▁얘기한다	-12537
▁얘기해서	-12538
▁어김없이	-12539
▁어디선가	-12540
▁어딘가로	-12541
▁어땠는지	-12542
▁어떡해요	-12543
▁어떨까요	-12544
▁어르신이	-12545
▁어린아이	-12546
▁어마어마	-12547
▁어머니랑	-12548
▁어민들이	-12549
▁어울린다	-12550
▁어육장에	-12551
▁얹어준다	-12552
▁얻는다고	-12553
▁얻었으니	-12554
▁얼어붙은	-12555
▁얼음구멍	-12556
▁엄마이다	-12557
▁엄청나다	-12558
▁없는데도	-12559
▁없어지는	-12560
▁없어진다	-12561
▁없었다고	-12562
▁엉켜있는	-12563
▁에너지를	-12564
▁에어컨을	-12565
▁여기서만	-12566
▁여기저기	-12567
▁여유로운	-12568
▁연결하면	-12569
▁연마하는	-12570
▁연속이다	-12571
▁연수목을	-12572
▁연아씨는	-12573
▁연옥이다	-12574
▁연탄공장	-12575
▁영양까지	-12576
▁영양분을	-12577
▁영자씨는	-12578
▁예민하다	-12579
▁예방에도	-12580
▁예방하는	-12581
▁예상보다	-12582
▁오늘따라	-12583
▁오늘처럼	-12584
▁오동나무	-12585
▁오래오래	-12586
▁오매불망	-12587
▁오방색의	-12588
▁오순도순	-12589
▁오키나와	-12590
▁올라가요	-12591
▁올라오면	-12592
▁올려주면	-12593
▁옷가지를	-12594
▁와가지고	-12595
▁와이셔츠	-12596
▁완성시켜	-12597
▁왔거든요	-12598
▁왕실전통	-12599
▁외로움을	-12600
▁외항선은	-12601
▁요양원에	-12602
▁요즘이다	-12603
▁요즘처럼	-12604
▁우리들은	-12605
▁우리에게	-12606
▁울음소리	-12607
▁움직여야	-12608
▁움직이지	-12609
▁움직임에	-12610
▁웃음으로	-12611
▁원동력이	-12612
▁원산지다	-12613
▁원칙이다	-12614
▁위에서는	-12615
▁위험성도	-12616
▁위험천만	-12617
▁위험하고	-12618
▁위험하지	-12619
▁유명하다	-12620
▁유목민의	-12621
▁유목체험	-12622
▁유유자적	-12623
▁유일하게	-12624
▁유지하는	-12625
▁유치원에	-12626
▁육소장망	-12627
▁은박지로	-12628
▁은세공품	-12629
▁은수저가	-12630
▁은은하게	-12631
▁응급실에	-12632
▁의지하고	-12633
▁의지한다	-12634
▁이것들은	-12635
▁이것들을	-12636
▁이것이다	-12637
▁이곳에선	-12638
▁이러다가	-12639
▁이루어야	-12640
▁이루어진	-12641
▁이뤄진다	-12642
▁이물질이	-12643
▁이상이다	-12644
▁이상하게	-12645
▁이야기가	-12646
▁이야기는	-12647
▁이어오고	-12648
▁이웃들은	-12649
▁이장님은	-12650
▁이장님이	-12651
▁이정도면	-12652
▁이제라도	-12653
▁이해하고	-12654
▁익숙하다	-12655
▁익숙해져	-12656
▁익어간다	-12657
▁일거리를	-12658
▁일교차가	-12659
▁일꾼으로	-12660
▁일만큼은	-12661
▁일상으로	-12662
▁일어나면	-12663
▁일어난다	-12664
▁일어났다	-12665
▁일입니다	-12666
▁일정해야	-12667
▁일하느라	-12668
▁잃어버린	-12669
▁임금님의	-12670
▁있겠어요	-12671
▁있는지도	-12672
▁있어야지	-12673
▁있었다고	-12674
▁자동으로	-12675
▁자라도록	-12676
▁자라에게	-12677
▁자랐네요	-12678
▁자랑한다	-12679
▁자리잡은	-12680
▁자식들은	-12681
▁자식들을	-12682
▁자신보다	-12683
▁자양분이	-12684
▁자연건조	-12685
▁자연산과	-12686
▁자유로운	-12687
▁자전거를	-12688
▁자칫하면	-12689
▁작업에서	-12690
▁작업장을	-12691
▁작업하고	-12692
▁작업한다	-12693
▁작업해야	-12694
▁작품이다	-12695
▁잘라졌다	-12696
▁잘한다고	-12697
▁잡겠다는	-12698
▁잡아올린	-12699
▁잡아주는	-12700
▁잡아줘야	-12701
▁잡았다는	-12702
▁잡으니까	-12703
▁잡힌다고	-12704
▁장모님께	-12705
▁장모님이	-12706
▁장수말벌	-12707
▁장작으로	-12708
▁재료들은	-12709
▁재배하는	-12710
▁재촉한다	-12711
▁적절하게	-12712
▁전라남도	-12713
▁전통적인	-12714
▁전해진다	-12715
▁점심시간	-12716
▁정갈하게	-12717
▁정교하고	-12718
▁정도라고	-12719
▁정도예요	-12720
▁정력제로	-12721
▁정석씨다	-12722
▁정성스레	-12723
▁정성으로	-12724
▁제외하고	-12725
▁제작진을	-12726
▁제품이다	-12727
▁조각칼로	-12728
▁조상들이	-12729
▁종이라고	-12730
▁좋겠다고	-12731
▁좋아져요	-12732
▁좋아진다	-12733
▁주머니에	-12734
▁주무시고	-12735
▁주인공이	-12736
▁주입하는	-12737
▁주전자는	-12738
▁준민씨는	-12739
▁준비하기	-12740
▁준비했다	-12741
▁줄어든다	-12742
▁줄어들고	-12743
▁중심점을	-12744
▁지게차가	-12745
▁지금처럼	-12746
▁지나가는	-12747
▁지나갔다	-12748
▁지날수록	-12749
▁지방에서	-12750
▁지역에서	-12751
▁지쳐가는	-12752
▁지켜보던	-12753
▁지켜봐야	-12754
▁지팡이는	-12755
▁직원들과	-12756
▁직원들이	-12757
▁진액이다	-12758
▁진행된다	-12759
▁진행한다	-12760
▁짊어지고	-12761
▁집게발을	-12762
▁집안일은	-12763
▁집에서는	-12764
▁집에서도	-12765
▁쫄깃쫄깃	-12766
▁찌그러진	-12767
▁찌꺼기는	-12768
▁찔레꽃을	-12769
▁차지하고	-12770
▁찬바람도	-12771
▁찬바람이	-12772
▁참아가며	-12773
▁창규씨는	-12774
▁창조라는	-12775
▁찾습니다	-12776
▁찾아본다	-12777
▁찾아오는	-12778
▁찾으려면	-12779
▁책임지고	-12780
▁챙겨주는	-12781
▁챙긴다는	-12782
▁천직으로	-12783
▁천차만별	-12784
▁철거하고	-12785
▁청태전은	-12786
▁쳐다보면	-12787
▁초등학생	-12788
▁촘촘하게	-12789
▁최근성씨	-12790
▁최소한의	-12791
▁최적화된	-12792
▁추우니까	-12793
▁추출물을	-12794
▁추출하기	-12795
▁추출하는	-12796
▁출항한다	-12797
▁충격에도	-12798
▁친구들과	-12799
▁카메라로	-12800
▁카펫이다	-12801
▁캐냅니다	-12802
▁컴퓨터를	-12803
▁크레인에	-12804
▁크레인을	-12805
▁큰겁니다	-12806
▁큰소리를	-12807
▁큰아들이	-12808
▁키우느라	-12809
▁키웠어요	-12810
▁킬로그램	-12811
▁타조들이	-12812
▁탄생했다	-12813
▁탐지기에	-12814
▁탐침봉에	-12815
▁탱글탱글	-12816
▁터전이자	-12817
▁털어놓지	-12818
▁텃밭으로	-12819
▁테두리는	-12820
▁토사자는	-12821
▁토종벌꿀	-12822
▁토종벌은	-12823
▁톱니바퀴	-12824
▁통발마다	-12825
▁튀어나온	-12826
▁특별하게	-12827
▁팀입니다	-12828
▁파악한다	-12829
▁파이프를	-12830
▁판로에서	-12831
▁판매되는	-12832
▁판매된다	-12833
▁평소보다	-12834
▁평소에는	-12835
▁포기하지	-12836
▁포기해야	-12837
▁포악하다	-12838
▁포함되는	-12839
▁포획단이	-12840
▁표시나버	-12841
▁표정이다	-12842
▁풍부하게	-12843
▁풍부하다	-12844
▁하나뿐인	-12845
▁하나에도	-12846
▁하나이다	-12847
▁하느라고	-12848
▁하늘타리	-12849
▁하루라도	-12850
▁하루종일	-12851
▁하시니까	-12852
▁하십니다	-12853
▁학부모의	-12854
▁학생들은	-12855
▁한마디에	-12856
▁한방에서	-12857
▁한순간에	-12858
▁한자리에	-12859
▁한쪽으로	-12860
▁할머니를	-12861
▁할머니에	-12862
▁할머니와	-12863
▁함께했다	-12864
▁항아리다	-12865
▁항해사가	-12866
▁해결한다	-12867
▁해결해야	-12868
▁해녀들은	-12869
▁해녀들의	-12870
▁해마들은	-12871
▁해소에도	-12872
▁해주세요	-12873
▁했으니까	-12874
▁했잖아요	-12875
▁행복이죠	-12876
▁행복하게	-12877
▁향합니다	-12878
▁헬리콥터	-12879
▁형형색색	-12880
▁호두기름	-12881
▁호두들은	-12882
▁혼자만의	-12883
▁혼자서는	-12884
▁홍합들이	-12885
▁화려함의	-12886
▁화려했던	-12887
▁화장실도	-12888
▁화천천의	-12889
▁화학반응	-12890
▁확인하러	-12891
▁활동성이	-12892
▁훈장이다	-12893
▁훈장처럼	-12894
▁흔적들이	-12895
▁힘드세요	-12896
하시니까요	-12897
▁1,000	-12898
▁14000	-12899
▁3,000	-12900
▁4,000	-12901
▁80~90	-12902
▁가까이에서	-12903
▁가능하다고	-12904
▁가야합니다	-12905
▁가져가라고	-12906
▁가족들에게	-12907
▁감사합니다	-12908
▁같았습니다	-12909
▁걱정스럽다	-12910
▁걱정입니다	-12911
▁건조시켜야	-12912
▁걸어가는데	-12913
▁것들이에요	-12914
▁게르하우스	-12915
▁고기잡이가	-12916
▁고정시키는	-12917
▁고정시킨다	-12918
▁고집대로만	-12919
▁고풍스러운	-12920
▁공판장에서	-12921
▁관리하기로	-12922
▁괜찮습니다	-12923
▁구안와사가	-12924
▁귀뚜라미는	-12925
▁그렇다보니	-12926
▁그만하세요	-12927
▁금란씨이다	-12928
▁기본적으로	-12929
▁김대립씨는	-12930
▁김대립씨의	-12931
▁까만색으로	-12932
▁까치버섯은	-12933
▁깨끗해졌다	-12934
▁꼭대기까지	-12935
▁꿈틀거리는	-12936
▁나왔습니다	-12937
▁남숙씨이다	-12938
▁남편이었다	-12939
▁노루둥뎅이	-12940
▁농가에서는	-12941
▁다반사이다	-12942
▁답답하기만	-12943
▁대장간에는	-12944
▁도와달라고	-12945
▁도와주려고	-12946
▁도와주세요	-12947
▁도와줘야지	-12948
▁돌아가셨다	-12949
▁돌아갑니다	-12950
▁동의보감의	-12951
▁둘러보는데	-12952
▁드셔보세요	-12953
▁들어가네요	-12954
▁들어가는데	-12955
▁들어가면서	-12956
▁들어왔는데	-12957
▁들어왔어요	-12958
▁따라가보니	-12959
▁떨어지는데	-12960
▁떨어트린다	-12961
▁똑같습니다	-12962
▁뛰어나다고	-12963
▁마구잡이로	-12964
▁마무리됐다	-12965
▁마무리한다	-12966
▁마음입니다	-12967
▁마지막까지	-12968
▁마찬가지로	-12969
▁만들겠다는	-12970
▁만들려고요	-12971
▁만들어내고	-12972
▁만들어왔다	-12973
▁만들어주는	-12974
▁만들어지면	-12975
▁만들었어요	-12976
▁만족스럽지	-12977
▁말굽버섯은	-12978
▁망사주머니	-12979
▁먹어보라고	-12980
▁멈췄습니다	-12981
▁모르겠어요	-12982
▁모르겠지만	-12983
▁모르잖아요	-12984
▁몰랐습니다	-12985
▁무거우니까	-12986
▁문전성시를	-12987
▁물건입니다	-12988
▁물고기들이	-12989
▁미안해진다	-12990
▁미용실에서	-12991
▁밑그림조차	-12992
▁밑바닥까지	-12993
▁바다장어탕	-12994
▁바닷가에서	-12995
▁바닷속으로	-12996
▁받았습니다	-12997
▁발견하기도	-12998
▁방울이라도	-12999
▁범수씨이다	-13000
▁보양식이다	-13001
▁보이시나요	-13002
▁본초강목에	-13003
▁부러지나요	-13004
▁부러질세라	-13005
▁분주해진다	-13006
▁비파나무는	-13007
▁빠졌습니다	-13008
▁산소농도를	-13009
▁살아남아야	-13010
▁삼백육십오	-13011
▁상징합니다	-13012
▁상태일까요	-13013
▁상황버섯은	-13014
▁생각하는게	-13015
▁생각할수록	-13016
▁생일도에서	-13017
▁서운하기만	-13018
▁성격입니다	-13019
▁성공적일까	-13020
▁세계적으로	-13021
▁소나무에서	-13022
▁소셜미디어	-13023
▁송이버섯은	-13024
▁송이버섯이	-13025
▁수천만원을	-13026
▁숙성시켜야	-13027
▁순간만큼은	-13028
▁순간입니다	-13029
▁스스럼없이	-13030
▁시기입니다	-13031
▁시베리아의	-13032
▁시아버지와	-13033
▁시어머니는	-13034
▁시어머니다	-13035
▁시작입니다	-13036
▁시작했는데	-13037
▁시작했어요	-13038
▁시행착오를	-13039
▁아니잖아요	-13040
▁아미노산과	-13041
▁아버지에게	-13042
▁아슬아슬한	-13043
▁아이슬란드	-13044
▁아카시아나	-13045
▁안쓰러워요	-13046
▁않았습니다	-13047
▁알려져있다	-13048
▁알려지면서	-13049
▁알루미늄을	-13050
▁알루미늄이	-13051
▁약재입니다	-13052
▁약초입니다	-13053
▁어둠속에서	-13054
▁어머니에겐	-13055
▁여름철에는	-13056
▁열어봅니다	-13057
▁영양성분이	-13058
▁영지버섯은	-13059
▁오골계이다	-13060
▁오래될수록	-13061
▁오래전부터	-13062
▁오염되거나	-13063
▁올려놓는다	-13064
▁완성됩니다	-13065
▁우리나라에	-13066
▁위에서부터	-13067
▁위치해있다	-13068
▁위태롭기만	-13069
▁위험하지만	-13070
▁유목민들이	-13071
▁육소장망을	-13072
▁음식입니다	-13073
▁인공적으로	-13074
▁인도네시아	-13075
▁일사천리로	-13076
▁일어나도록	-13077
▁일주일정도	-13078
▁일직선으로	-13079
▁잃어버리면	-13080
▁있더라고요	-13081
▁잊어버려요	-13082
▁자기들끼리	-13083
▁자리돔떼가	-13084
▁자리돔이다	-13085
▁자식들에게	-13086
▁자연경관과	-13087
▁자연스러운	-13088
▁자작나무를	-13089
▁자재입니다	-13090
▁자체에서도	-13091
▁작업장에서	-13092
▁작업하다가	-13093
▁잡았습니다	-13094
▁적하수오가	-13095
▁적하수오는	-13096
▁적하수오를	-13097
▁전파망원경	-13098
▁정도인가요	-13099
▁정도입니다	-13100
▁제거해줘야	-13101
▁제작진에게	-13102
▁좋아졌어요	-13103
▁좋아집니다	-13104
▁주방장으로	-13105
▁주부들에게	-13106
▁주인공이다	-13107
▁집어넣는다	-13108
▁찔레나무는	-13109
▁찔레버섯에	-13110
▁차례입니다	-13111
▁찾아다니는	-13112
▁철갑상어를	-13113
▁최상급이다	-13114
▁카메라까지	-13115
▁키우면서도	-13116
▁특징입니다	-13117
▁풍부합니다	-13118
▁프라이팬을	-13119
▁프라이팬이	-13120
▁피로회복에	-13121
▁필요하다고	-13122
▁하겠습니다	-13123
▁하나입니다	-13124
▁하우스에서	-13125
▁한가운데서	-13126
▁한마리에서	-13127
▁한편으로는	-13128
▁할머니들을	-13129
▁할머니들의	-13130
▁할아버지도	-13131
▁해결하려고	-13132
▁해결합니다	-13133
▁해봤습니다	-13134
▁해야겠어요	-13135
▁핵심포인트	-13136
▁혈액순환에	-13137
▁혈액순환을	-13138
▁확인합니다	-13139
▁확인해본다	-13140
▁흑도라지를	-13141
▁흑염소들은	-13142
▁힘들겠어요	-13143
▁걸려들었을까	-13144
▁기름가자미를	-13145
▁나타났습니다	-13146
▁낭충봉아부패	-13147
▁노랑가오리가	-13148
▁다이아몬드는	-13149
▁다이아몬드와	-13150
▁담쟁이덩굴은	-13151
▁당나귀입니다	-13152
▁도라지입니다	-13153
▁동원됐습니다	-13154
▁동의보감에서	-13155
▁만들어냅니다	-13156
▁만들었습니다	-13157
▁말씀드릴게요	-13158
▁먹음직스럽게	-13159
▁보양식으로도	-13160
▁비닐하우스가	-13161
▁생기더라고요	-13162
▁샤인머스켓을	-13163
▁시각장애인이	-13164
▁시작했습니다	-13165
▁심기일전해서	-13166
▁아름답습니다	-13167
▁아슬아슬하게	-13168
▁야생동물들의	-13169
▁영지버섯이다	-13170
▁완성됐습니다	-13171
▁위해서입니다	-13172
▁유리공으로서	-13173
▁진두지휘한다	-13174
▁채취하자마자	-13175
▁황소개구리가	-13176
▁황소개구리를	-13177
▁다이너마이트를	-13178
▁불포화지방산은	-13179
▁차가버섯이에요	-13180
▁척트바야르씨가	-13181
▁표시나버리잖아요	-13182
30°	-13183
nsi	-13184
rsi	-13185
▁객식	-13186
▁닻을	-13187
▁댁을	-13188
▁돔이	-13189
▁듬뿍	-13190
▁똥이	-13191
▁레몬	-13192
▁레슨	-13193
▁류원	-13194
▁맏며	-13195
▁브랜	-13196
▁쏜살	-13197
▁씌우	-13198
▁앗아	-13199
▁윷의	-13200
▁쟤도	-13201
▁찐빵	-13202
▁찹쌀	-13203
▁춤을	-13204
▁컸다	-13205
▁케이	-13206
▁톳은	-13207
▁펄떡	-13208
▁펄펄	-13209
▁펜슬	-13210
▁플로	-13211
▁헹궈	-13212
▁협업	-13213
▁획을	-13214
거려도	-13215
구만요	-13216
귓불을	-13217
그래머	-13218
금주로	-13219
기둥에	-13220
기법이	-13221
기술을	-13222
기스인	-13223
기업체	-13224
꺼풀을	-13225
꾸라지	-13226
나뭇과	-13227
나뭇잎	-13228
날과도	-13229
내부로	-13230
너머로	-13231
네스코	-13232
노봉방	-13233
대식당	-13234
덕스런	-13235
량종을	-13236
록증을	-13237
류창고	-13238
릿발로	-13239
메주다	-13240
명천만	-13241
모양의	-13242
무했기	-13243
미나의	-13244
미역은	-13245
발효를	-13246
발효식	-13247
배추를	-13248
보여도	-13249
봉방은	-13250
빛깔로	-13251
뿌리도	-13252
사나이	-13253
사랑이	-13254
산화수	-13255
생식물	-13256
서주다	-13257
선수범	-13258
성기씨	-13259
센터로	-13260
속중인	-13261
쉬움이	-13262
쉼터로	-13263
시지옥	-13264
시켰다	-13265
식재료	-13266
식틀에	-13267
신호를	-13268
아침에	-13269
악지역	-13270
압이야	-13271
약초꾼	-13272
약함의	-13273
억원대	-13274
연되다	-13275
였을지	-13276
영받지	-13277
영안실	-13278
예방에	-13279
우나케	-13280
유증에	-13281
으리라	-13282
응호의	-13283
이스북	-13284
이신지	-13285
자락에	-13286
작용에	-13287
재료에	-13288
적외선	-13289
전반에	-13290
제거에	-13291
조망이	-13292
종류의	-13293
주변에	-13294
중구포	-13295
줬다면	-13296
차례의	-13297
착역은	-13298
창고에	-13299
나다를	-13300
느냐에	-13301
떠름한	-13302
르렀다	-13303
모론이	-13304
사님도	-13305
사론이	-13306
사름한	-13307
수님도	-13308
철학을	-13309
춘화와	-13310
친김에	-13311
쿠라지	-13312
타했고	-13313
태세로	-13314
퍼센트	-13315
표면이	-13316
표현을	-13317
하께서	-13318
하리라	-13319
하므로	-13320
하셨나	-13321
해역에	-13322
해풍에	-13323
행이도	-13324
형시켰	-13325
호점에	-13326
호점의	-13327
화됐을	-13328
화철이	-13329
확율이	-13330
환자실	-13331
홧김에	-13332
황제의	-13333
효과도	-13334
효율인	-13335
ensi	-13336
~600	-13337
▁0.1	-13338
▁0.2	-13339
▁180	-13340
▁3,4	-13341
▁550	-13342
▁5~6	-13343
▁가구당	-13344
▁가닥씩	-13345
▁가뭄때	-13346
▁가뭄이	-13347
▁가봤다	-13348
▁가스불	-13349
▁가위로	-13350
▁가졌고	-13351
▁가출한	-13352
▁각도와	-13353
▁각오를	-13354
▁갈메기	-13355
▁갈증과	-13356
▁갈증도	-13357
▁감지해	-13358
▁갑옷을	-13359
▁강남시	-13360
▁강산이	-13361
▁강철로	-13362
▁강화와	-13363
▁개체로	-13364
▁객들이	-13365
▁거문도	-13366
▁거보여	-13367
▁겉껍질	-13368
▁겨눈다	-13369
▁경춘은	-13370
▁계란말	-13371
▁계란은	-13372
▁계란을	-13373
▁계산하	-13374
▁고객의	-13375
▁고난의	-13376
▁고난이	-13377
▁고달픈	-13378
▁고랑에	-13379
▁고서에	-13380
▁고창에	-13381
▁골목에	-13382
▁골치만	-13383
▁곰탕이	-13384
▁공들여	-13385
▁과메기	-13386
▁관련한	-13387
▁광성할	-13388
▁괴롭다	-13389
▁교습과	-13390
▁구두를	-13391
▁구름의	-13392
▁국화도	-13393
▁군데에	-13394
▁굴뚝에	-13395
▁굴착기	-13396
▁궁중의	-13397
▁권위자	-13398
▁권위적	-13399
~70	-13400
▁걔가	-13401
▁겹의	-13402
▁꿩들	-13403
▁덧대	-13404
▁뜯기	-13405
▁뜯는	-13406
▁뜯어	-13407
▁뺏긴	-13408
▁뺏어	-13409
▁삭시	-13410
▁삭혔	-13411
▁샤워	-13412
▁쌉싸	-13413
▁쌉쌀	-13414
▁얹고	-13415
▁얽혀	-13416
▁월순	-13417
▁으깨	-13418
▁으뜸	-13419
▁잉크	-13420
▁좌우	-13421
▁징조	-13422
▁짭잘	-13423
▁짭짤	-13424
▁째다	-13425
▁탔네	-13426
▁탔다	-13427
▁헛될	-13428
▁헛수	-13429
▁혀의	-13430
감각이	-13431
구리와	-13432
넣고는	-13433
들갑을	-13434
린내를	-13435
수기인	-13436
여개다	-13437
장갑을	-13438
~70%	-13439
▁6~7	-13440
▁귀여운	-13441
▁귓불을	-13442
▁균형을	-13443
▁귤색을	-13444
▁그순간	-13445
▁그을려	-13446
▁극성은	-13447
▁근간이	-13448
▁글루탐	-13449
▁금맥이	-13450
▁금성호	-13451
▁금어기	-13452
▁금조각	-13453
▁금형을	-13454
▁기세도	-13455
▁기약할	-13456
▁기어이	-13457
▁기업인	-13458
▁기원과	-13459
▁기증에	-13460
▁김우동	-13461
▁김우중	-13462
▁김일수	-13463
▁깊숙히	-13464
▁꼴이다	-13465
▁꾸준한	-13466
▁꾸중을	-13467
▁꿈쩍도	-13468
▁끊길까	-13469
▁낙반사	-13470
▁날라와	-13471
▁날짜에	-13472
▁남길까	-13473
▁남매가	-13474
▁남방에	-13475
▁남았어	-13476
▁낯설고	-13477
▁내공은	-13478
▁내놓기	-13479
▁내밀고	-13480
▁내뿜고	-13481
▁내키지	-13482
▁너머로	-13483
▁넓적다	-13484
▁노련한	-13485
▁노릇노	-13486
▁노모들	-13487
▁노봉방	-13488
▁녹슬고	-13489
▁농담이	-13490
▁농부인	-13491
▁농어의	-13492
▁놓이요	-13493
▁놔주신	-13494
▁뇌세포	-13495
▁눈발이	-13496
▁눈썹도	-13497
▁느끼게	-13498
▁느끼는	-13499
mmo	-13500
지못해	-13501
mmon	-13502
~700	-13503
▁느끼죠	-13504
▁늘여야	-13505
▁다다를	-13506
▁다투게	-13507
▁단골손	-13508
▁단열재	-13509
▁단위로	-13510
▁달달한	-13511
▁닮았어	-13512
▁당기기	-13513
▁대게다	-13514
▁대군이	-13515
▁대우가	-13516
▁대우의	-13517
▁대화도	-13518
▁대화할	-13519
▁덩굴식	-13520
▁덩굴을	-13521
▁덩치의	-13522
▁데려오	-13523
▁데이터	-13524
▁도가니	-13525
▁도료다	-13526
▁도안이	-13527
▁독사는	-13528
▁독침은	-13529
▁독침을	-13530
▁독침이	-13531
▁돌리자	-13532
▁동굴을	-13533
▁되겠냐	-13534
▁두려운	-13535
▁두루두	-13536
▁두리둥	-13537
▁두번째	-13538
▁뒤따라	-13539
▁뒤주에	-13540
▁드론을	-13541
▁드물게	-13542
▁드신단	-13543
▁들려올	-13544
▁들었나	-13545
▁등급이	-13546
▁등록됐	-13547
▁등록을	-13548
▁따르니	-13549
▁떡국에	-13550
▁떼었기	-13551
▁뜯어왔	-13552
▁레몬이	-13553
▁레슨이	-13554
▁마르며	-13555
▁마사지	-13556
▁마사토	-13557
▁마이너	-13558
▁마저도	-13559
▁마취제	-13560
▁마케팅	-13561
▁만삭의	-13562
▁만새기	-13563
▁만점인	-13564
▁만지듯	-13565
▁만한지	-13566
▁맘처럼	-13567
▁맛보게	-13568
▁맞물려	-13569
▁매순간	-13570
▁맨손에	-13571
▁맴돌고	-13572
▁먹다말	-13573
▁먹었냐	-13574
▁면적의	-13575
▁명맥을	-13576
▁몇개만	-13577
▁모른척	-13578
▁모스크	-13579
▁모은다	-13580
▁목걸이	-13581
▁목장승	-13582
▁목재가	-13583
▁목탁가	-13584
▁몸짓을	-13585
▁무얼하	-13586
▁무한한	-13587
▁묶여버	-13588
▁문틀에	-13589
▁문헌에	-13590
▁물때를	-13591
▁물때에	-13592
▁물리치	-13593
▁물불을	-13594
▁뭍으로	-13595
▁미루지	-13596
▁밀착을	-13597
▁바뀔지	-13598
▁바랐던	-13599
잎식물	-13600
▁박명대	-13601
▁박물관	-13602
▁박수철	-13603
▁박차를	-13604
▁반건조	-13605
▁반점은	-13606
▁반지와	-13607
▁발명왕	-13608
▁발파로	-13609
▁밝히며	-13610
▁밟았을	-13611
▁밤에나	-13612
▁방귀를	-13613
▁배설을	-13614
▁배스와	-13615
▁배스의	-13616
▁백골에	-13617
▁백내장	-13618
▁백신은	-13619
▁백신이	-13620
▁백향과	-13621
▁뱀독이	-13622
▁뱀이란	-13623
▁뱉어내	-13624
▁버티는	-13625
▁벅차고	-13626
▁번데기	-13627
▁벌꿀은	-13628
▁벌레를	-13629
▁범수씨	-13630
▁법재가	-13631
▁법재는	-13632
▁변변치	-13633
▁변변한	-13634
▁변할지	-13635
▁변환해	-13636
▁보냈지	-13637
▁보리밥	-13638
▁보리차	-13639
▁보상과	-13640
▁보시게	-13641
▁보안시	-13642
▁보일지	-13643
▁보증을	-13644
▁복원한	-13645
▁볶음과	-13646
▁본능에	-13647
▁볼래요	-13648
▁봉독이	-13649
▁봉평의	-13650
▁부담을	-13651
▁부담이	-13652
▁부대껴	-13653
▁부엌을	-13654
▁부엌이	-13655
▁부엌칼	-13656
▁부패가	-13657
▁부패를	-13658
▁북풍에	-13659
▁북한은	-13660
▁분담이	-13661
▁분말을	-13662
▁분석해	-13663
▁분자요	-13664
▁분화에	-13665
▁불꽃을	-13666
▁불꽃의	-13667
▁불똥이	-13668
▁불리우	-13669
▁불필요	-13670
▁비료에	-13671
▁비비고	-13672
▁비탈이	-13673
▁비탈진	-13674
▁비효율	-13675
▁빛나게	-13676
▁빼면은	-13677
▁빼앗지	-13678
▁뻗었기	-13679
▁뽕나무	-13680
▁사건은	-13681
▁사건이	-13682
▁사그라	-13683
▁사신지	-13684
▁사연을	-13685
▁사줬다	-13686
▁사찰법	-13687
▁산나물	-13688
▁살균을	-13689
▁살자로	-13690
▁살찌는	-13691
▁삼겹살	-13692
▁삼삼오	-13693
▁상점이	-13694
▁상하셨	-13695
▁새빨개	-13696
▁새순을	-13697
▁새참을	-13698
▁생강에	-13699
▁생강즙	-13700
▁생계도	-13701
▁생길까	-13702
▁생쌀을	-13703
▁생업인	-13704
▁생존의	-13705
▁석회질	-13706
▁선배다	-13707
▁선수같	-13708
▁선점한	-13709
▁선처를	-13710
▁선철로	-13711
▁성능에	-13712
▁성화에	-13713
▁세균을	-13714
▁세금을	-13715
▁세로로	-13716
▁세번째	-13717
▁세제는	-13718
▁세제액	-13719
▁세탁기	-13720
▁셰프가	-13721
▁소라를	-13722
▁소모가	-13723
▁소스에	-13724
▁소파가	-13725
▁소파나	-13726
▁소홀히	-13727
▁소화와	-13728
▁속대만	-13729
▁속도와	-13730
▁속마음	-13731
▁손기술	-13732
▁손녀를	-13733
▁손대도	-13734
▁손상된	-13735
▁손수레	-13736
▁손실을	-13737
▁솔직한	-13738
▁수거할	-13739
▁수건은	-13740
▁수다를	-13741
▁수색대	-13742
▁수억만	-13743
▁수익을	-13744
▁수저를	-13745
▁수조로	-13746
▁수직굴	-13747
▁수초도	-13748
▁수출의	-13749
▁수컷은	-13750
▁술병엔	-13751
▁숨결을	-13752
▁숨죽여	-13753
▁숫자도	-13754
▁숫자만	-13755
▁스물스	-13756
▁스승의	-13757
▁스타쉐	-13758
▁스피로	-13759
▁스피룰	-13760
▁승률은	-13761
▁승섭이	-13762
▁시금치	-13763
▁시부모	-13764
▁시세에	-13765
▁시야를	-13766
▁시야에	-13767
▁시점에	-13768
▁시켰나	-13769
▁식수와	-13770
▁식초의	-13771
▁신발장	-13772
▁신호를	-13773
▁신혼여	-13774
▁싫은데	-13775
▁심장부	-13776
▁싸울게	-13777
▁쌉쌀한	-13778
▁쌍둥이	-13779
▁쓸어담	-13780
▁씁니다	-13781
▁씌우는	-13782
▁씨름끝	-13783
▁씨방을	-13784
▁씨알이	-13785
▁아교를	-13786
▁아연을	-13787
▁아연의	-13788
▁아플까	-13789
▁아홉째	-13790
▁안됐을	-13791
▁안마해	-13792
▁안팎의	-13793
▁안하길	-13794
▁안희수	-13795
▁않겠나	-13796
▁않으랴	-13797
▁알레르	-13798
▁알알이	-13799
체능에	-13800
▁암세포	-13801
▁암수구	-13802
▁암초에	-13803
▁앗아갈	-13804
▁애교로	-13805
▁애기들	-13806
▁애쓴다	-13807
▁애용중	-13808
▁애초에	-13809
▁약성은	-13810
▁얘네는	-13811
▁어군탐	-13812
▁어림잡	-13813
▁어창이	-13814
▁얻어먹	-13815
▁얼레빗	-13816
▁업어준	-13817
▁엉망이	-13818
▁여건을	-13819
▁여느때	-13820
▁여론을	-13821
▁연세도	-13822
▁연출된	-13823
▁연출할	-13824
▁열무에	-13825
▁열정과	-13826
▁염료의	-13827
▁염료흡	-13828
▁영광인	-13829
▁영민씨	-13830
▁영안실	-13831
▁영역인	-13832
▁영조의	-13833
▁예측이	-13834
▁오방색	-13835
▁온풍기	-13836
▁올무가	-13837
▁올무에	-13838
▁완료된	-13839
▁왕겨에	-13840
▁외래어	-13841
▁외롭지	-13842
▁요구되	-13843
▁요양원	-13844
▁용돈이	-13845
▁용직이	-13846
▁우신은	-13847
▁운전사	-13848
▁웃어넘	-13849
▁웃음꽃	-13850
▁원료죠	-13851
▁원본을	-13852
▁원인도	-13853
▁원인상	-13854
▁원통의	-13855
▁월급을	-13856
▁위주로	-13857
▁유기농	-13858
▁유치원	-13859
▁유해조	-13860
▁유행할	-13861
▁육수에	-13862
▁윤성구	-13863
▁은근한	-13864
▁은빗에	-13865
▁은행도	-13866
▁은혜를	-13867
▁의사인	-13868
▁의외로	-13869
▁이경형	-13870
▁이금선	-13871
▁이기기	-13872
▁이끌어	-13873
▁이끼와	-13874
▁이물질	-13875
▁이슬을	-13876
▁이전과	-13877
▁이쪽이	-13878
▁이하로	-13879
▁이현석	-13880
▁인류의	-13881
▁인원만	-13882
▁인원은	-13883
▁인체의	-13884
▁일과다	-13885
▁일광욕	-13886
▁일광호	-13887
▁일교차	-13888
▁일구고	-13889
▁일구며	-13890
▁일러주	-13891
▁일사불	-13892
▁일억원	-13893
▁일차적	-13894
▁일터로	-13895
▁일행은	-13896
▁읽어낼	-13897
▁잃었고	-13898
▁임무다	-13899
▁버거워	-13900
▁보태주	-13901
▁비롯한	-13902
▁빈틈이	-13903
▁빼곡한	-13904
▁산골로	-13905
▁산골짜	-13906
▁살살해	-13907
▁석탄의	-13908
▁성게와	-13909
▁성게의	-13910
▁소개로	-13911
▁소개팅	-13912
▁손꼽힌	-13913
▁수온도	-13914
▁수입을	-13915
▁승부사	-13916
▁시대쯤	-13917
▁시도도	-13918
▁시도해	-13919
▁시장규	-13920
▁시행될	-13921
▁신문지	-13922
▁실수할	-13923
▁십오년	-13924
▁아가티	-13925
▁야속함	-13926
▁어긋나	-13927
▁어지간	-13928
▁연료는	-13929
▁옻칠을	-13930
▁입소문	-13931
▁입학한	-13932
▁입혀나	-13933
▁있겠나	-13934
▁있었는	-13935
▁잉크가	-13936
▁자극에	-13937
▁자녀를	-13938
▁자녀에	-13939
▁자락에	-13940
▁자매가	-13941
▁자존심	-13942
▁자줏빛	-13943
▁자태와	-13944
▁자화라	-13945
▁작아졌	-13946
▁작용에	-13947
▁잘해준	-13948
▁잡귀를	-13949
▁잡았네	-13950
▁장가도	-13951
▁장기간	-13952
▁장독의	-13953
▁장마에	-13954
▁장모가	-13955
▁장식은	-13956
▁장식할	-13957
▁장애를	-13958
▁장정숙	-13959
▁잦아들	-13960
▁재래된	-13961
▁재현을	-13962
▁잿더미	-13963
▁잿물이	-13964
▁저걸로	-13965
▁저러다	-13966
▁저러시	-13967
▁저울에	-13968
▁저장고	-13969
▁저장해	-13970
▁적응이	-13971
▁적절한	-13972
▁전립선	-13973
▁전선도	-13974
▁전시계	-13975
▁절구통	-13976
▁점검을	-13977
▁정기모	-13978
▁정부나	-13979
▁정조고	-13980
▁정착을	-13981
▁제공받	-13982
▁제공한	-13983
▁제왕인	-13984
▁제품도	-13985
▁제품에	-13986
▁조급한	-13987
▁조급해	-13988
▁조류독	-13989
▁조상벌	-13990
▁조선왕	-13991
▁조직은	-13992
▁조직을	-13993
▁조청에	-13994
▁조청을	-13995
▁종균을	-13996
▁종양의	-13997
▁종이만	-13998
▁종초는	-13999
▁기쁨의	-14000
▁김장철	-14001
▁깜빡깜	-14002
▁나빠서	-14003
▁나빠진	-14004
▁납작한	-14005
▁내보내	-14006
▁내용은	-14007
▁넝쿨이	-14008
▁놀러나	-14009
▁놀러온	-14010
▁눈앞이	-14011
▁다잡게	-14012
▁다잡고	-14013
▁대처로	-14014
▁독성만	-14015
▁동료나	-14016
▁동일시	-14017
▁두껍고	-14018
▁둘레를	-14019
▁뜰채를	-14020
▁뜰채와	-14021
▁맞고도	-14022
▁모으고	-14023
▁모으는	-14024
▁무쇠가	-14025
▁무인도	-14026
▁미래에	-14027
▁민물장	-14028
▁밑창을	-14029
▁바빴던	-14030
▁밝아도	-14031
▁밤낮을	-14032
▁방부효	-14033
▁배고파	-14034
▁배고픈	-14035
▁백탄을	-14036
▁주말도	-14037
▁주부로	-14038
▁주종이	-14039
▁주행로	-14040
▁주희는	-14041
▁주희야	-14042
▁중장비	-14043
▁중풍에	-14044
▁중학교	-14045
▁즈음의	-14046
▁즐기던	-14047
▁즐비한	-14048
▁지녔다	-14049
▁지니고	-14050
▁지독한	-14051
▁지름과	-14052
▁지목된	-14053
▁지원해	-14054
▁지정될	-14055
▁지체할	-14056
▁지치기	-14057
▁지표면	-14058
▁지피는	-14059
▁지하철	-14060
▁지혜다	-14061
▁지휘자	-14062
▁직장동	-14063
▁직후의	-14064
▁진시황	-14065
▁질병이	-14066
▁짐작할	-14067
▁집합체	-14068
▁짓밟고	-14069
▁징그러	-14070
▁징조다	-14071
▁짜내서	-14072
▁쪼개는	-14073
▁쪼개서	-14074
▁쫓아오	-14075
▁차뿐만	-14076
▁차오른	-14077
▁차이도	-14078
▁찰나의	-14079
▁참꼬막	-14080
▁참숯의	-14081
▁찹쌀을	-14082
▁찹쌀풀	-14083
▁찻길에	-14084
▁찻잔에	-14085
▁찻잔의	-14086
▁채소에	-14087
▁채소인	-14088
▁채우지	-14089
▁처형과	-14090
▁척추를	-14091
▁천만다	-14092
▁천생이	-14093
▁천적의	-14094
▁천정에	-14095
▁천창을	-14096
▁철저히	-14097
▁철학을	-14098
▁첫눈과	-14099
선충이	-14100
세포를	-14101
▁4,5	-14102
▁90%	-14103
▁가출은	-14104
▁강화된	-14105
▁개척한	-14106
▁거북이	-14107
▁건드려	-14108
▁겨를도	-14109
▁견뎌내	-14110
▁견뎌낼	-14111
▁견디기	-14112
▁견디며	-14113
▁경쟁과	-14114
▁고소애	-14115
▁공연을	-14116
▁구경꾼	-14117
▁귀가로	-14118
▁귀찮고	-14119
▁기회를	-14120
▁놓칠까	-14121
▁다칠까	-14122
▁땜질로	-14123
▁땜질의	-14124
▁물질로	-14125
▁발해의	-14126
▁방부재	-14127
▁방치에	-14128
▁빠지게	-14129
▁새해가	-14130
▁손해가	-14131
▁심해의	-14132
▁엄포를	-14133
▁염증이	-14134
▁영천의	-14135
▁저질러	-14136
▁준민아	-14137
▁채팅을	-14138
▁첫눈에	-14139
▁첫번째	-14140
▁청결을	-14141
▁청소년	-14142
▁청소에	-14143
▁청정해	-14144
▁체조가	-14145
▁체중을	-14146
▁쳐다보	-14147
▁쳤지만	-14148
▁초록빛	-14149
▁촉촉한	-14150
▁촉촉히	-14151
▁촘촘히	-14152
▁축제나	-14153
▁출근길	-14154
▁출발에	-14155
▁춥다는	-14156
▁취미가	-14157
▁치료에	-14158
▁치료와	-14159
▁치르던	-14160
▁치솟고	-14161
▁친근한	-14162
▁칠보로	-14163
▁칠십여	-14164
▁칠십육	-14165
▁침범한	-14166
▁침범해	-14167
▁침투해	-14168
▁칭찬에	-14169
▁칼날을	-14170
▁칼날의	-14171
▁캤구만	-14172
▁컵까지	-14173
▁코르테	-14174
▁코치로	-14175
▁코팅젤	-14176
▁콩사리	-14177
▁쿠키를	-14178
▁쿠키와	-14179
▁큰딸과	-14180
▁큰딸이	-14181
▁키로수	-14182
▁타박이	-14183
▁타일로	-14184
▁타작을	-14185
▁타작이	-14186
▁터져나	-14187
▁텐트에	-14188
▁토질은	-14189
▁통증을	-14190
▁통풍이	-14191
▁퇴근은	-14192
▁퇴행성	-14193
▁툭하면	-14194
▁튀겨야	-14195
▁튀김의	-14196
▁특기인	-14197
▁특유한	-14198
▁틈새로	-14199
강무늬	-14200
괄셰프	-14201
란인의	-14202
방전도	-14203
배송이	-14204
베이어	-14205
어묵이	-14206
위성에	-14207
은빗이	-14208
인조가	-14209
져주기	-14210
중망에	-14211
파이어	-14212
▁간발의	-14213
▁개봉을	-14214
▁금박을	-14215
▁꽃밭을	-14216
▁낯익은	-14217
▁단면을	-14218
▁대상은	-14219
▁돌보지	-14220
▁동전이	-14221
▁맞먹는	-14222
▁명백한	-14223
▁명인은	-14224
▁명인의	-14225
▁목재관	-14226
▁민박을	-14227
▁반수공	-14228
▁방심은	-14229
▁벽면에	-14230
▁보수공	-14231
▁본인의	-14232
▁생성에	-14233
▁서산의	-14234
▁설명을	-14235
▁성적이	-14236
▁손쉬운	-14237
▁수익은	-14238
▁습성에	-14239
▁와이어	-14240
▁와인은	-14241
▁요맘때	-14242
▁운명을	-14243
▁원인은	-14244
▁은서가	-14245
▁은서를	-14246
▁인원이	-14247
▁잣송이	-14248
▁적송이	-14249
▁접시를	-14250
▁주셔서	-14251
▁지시를	-14252
▁지인의	-14253
▁진심은	-14254
▁쪽잠을	-14255
▁청산도	-14256
▁텃밭을	-14257
▁팠다고	-14258
▁퍼지게	-14259
▁평원과	-14260
▁평택에	-14261
▁포도다	-14262
▁포도도	-14263
▁포함한	-14264
▁폭풍이	-14265
▁푸짐한	-14266
▁풀숲에	-14267
▁프랑스	-14268
▁프랑크	-14269
▁플로랄	-14270
▁피었네	-14271
▁핀잔을	-14272
▁하더라	-14273
▁하므로	-14274
▁하산할	-14275
▁하소연	-14276
▁하수오	-14277
▁하영이	-14278
▁하찮게	-14279
▁한걸음	-14280
▁한여름	-14281
▁한쪽이	-14282
▁한철이	-14283
▁함부로	-14284
▁함초는	-14285
▁합쳐도	-14286
▁합쳐져	-14287
▁항구엔	-14288
▁해롭다	-14289
▁해먹을	-14290
▁해변에	-14291
▁해볼까	-14292
▁해수와	-14293
▁해외로	-14294
▁해외의	-14295
▁해줄게	-14296
▁해충이	-14297
▁햇빛과	-14298
▁햇빛에	-14299
▁싼값	-14300
▁악세	-14301
▁악착	-14302
▁엔돌	-14303
▁옹골	-14304
▁왼손	-14305
▁잤다	-14306
▁찰나	-14307
▁찰진	-14308
▁퉁명	-14309
▁티격	-14310
▁티끌	-14311
▁패이	-14312
▁홈이	-14313
갈리게	-14314
공급을	-14315
내가고	-14316
들께서	-14317
루길도	-14318
름망에	-14319
입견을	-14320
족관을	-14321
진대요	-14322
쳐나고	-14323
한거야	-14324
▁가드레	-14325
▁노랗게	-14326
▁누리게	-14327
▁등급을	-14328
▁뜨끈한	-14329
▁마르게	-14330
▁매끈한	-14331
▁뭐냐면	-14332
▁보름이	-14333
▁분들께	-14334
▁설거지	-14335
▁손길도	-14336
▁숙련된	-14337
▁시동생	-14338
▁식감은	-14339
▁싼값에	-14340
▁악세사	-14341
▁엔돌핀	-14342
▁연달아	-14343
▁옹골진	-14344
▁왼쪽을	-14345
▁있겠지	-14346
▁있대요	-14347
▁잤다가	-14348
▁전각을	-14349
▁좋단다	-14350
▁찰나를	-14351
▁참견을	-14352
▁티격태	-14353
▁티끌도	-14354
▁품격이	-14355
▁하냐면	-14356
▁하려니	-14357
▁한나절	-14358
▁향상과	-14359
▁허가신	-14360
▁허약체	-14361
▁허탈한	-14362
▁헛도는	-14363
▁헤매는	-14364
▁헤매며	-14365
▁헤어날	-14366
▁헤어짐	-14367
▁혈관을	-14368
▁혈압약	-14369
▁형성될	-14370
▁형제들	-14371
▁호망과	-14372
▁호미는	-14373
▁호미에	-14374
▁호스랑	-14375
▁호주에	-14376
▁혼합된	-14377
▁홍삼은	-14378
▁홍천의	-14379
▁화상은	-14380
▁화해의	-14381
▁화해할	-14382
▁확율이	-14383
▁환자다	-14384
▁환풍기	-14385
▁황급히	-14386
▁황말벌	-14387
▁황제와	-14388
▁효과도	-14389
▁효능도	-14390
▁후계자	-14391
▁후련한	-14392
▁후보로	-14393
▁훤하다	-14394
▁휘젓기	-14395
▁흉터라	-14396
▁흐름에	-14397
▁흑산도	-14398
▁흑해의	-14399
0.5	-14400
~12	-14401
~15	-14402
▁갚아	-14403
▁꺾꽂	-14404
▁꺾어	-14405
▁꺾이	-14406
▁꺾인	-14407
▁덥기	-14408
▁덥석	-14409
▁돋아	-14410
▁뜬금	-14411
▁벅찬	-14412
▁빻고	-14413
▁섭섭	-14414
▁쉼표	-14415
50.5	-14416
~120	-14417
▁꺾꽂이	-14418
▁꼽는다	-14419
▁났는데	-14420
▁났어요	-14421
▁덖기를	-14422
▁둬야만	-14423
▁루비는	-14424
▁루비와	-14425
▁빻아서	-14426
▁쉼터에	-14427
▁없으나	-14428
▁올랐을	-14429
▁으스러	-14430
▁흠집과	-14431
▁흩날려	-14432
▁희귀성	-14433
▁희망도	-14434
▁희망의	-14435
▁희석해	-14436
▁희한한	-14437
▁힘겨운	-14438
가락지위	-14439
간에서나	-14440
겼다고요	-14441
고라든지	-14442
고사에서	-14443
곱미터의	-14444
공연하게	-14445
괭이예요	-14446
구에서만	-14447
구작업은	-14448
그라든다	-14449
기수씨가	-14450
기하나를	-14451
나갈만큼	-14452
나무이긴	-14453
년도니까	-14454
놓았다고	-14455
늘해지는	-14456
닥거리는	-14457
덩어리다	-14458
덩어리를	-14459
동목이라	-14460
두릅나무	-14461
드리고자	-14462
들한테도	-14463
등록증을	-14464
떡잎식물	-14465
뚤어지면	-14466
라인으로	-14467
람소리는	-14468
료되어서	-14469
룩이지요	-14470
마무리를	-14471
먹어야지	-14472
메기탕은	-14473
모퉁이에	-14474
무진하죠	-14475
바늘처럼	-14476
벌구이를	-14477
보내려면	-14478
보았더니	-14479
분서주다	-14480
분투하는	-14481
뼛속까지	-14482
뿐이예요	-14483
산지이다	-14484
산화수소	-14485
삼밭이다	-14486
색빛깔로	-14487
색텔레비	-14488
선하나를	-14489
성들한테	-14490
소제거에	-14491
손해져야	-14492
수밭이다	-14493
수선장은	-14494
스러울수	-14495
스크까지	-14496
시지옥이	-14497
식물인데	-14498
식발효를	-14499
▁귀찮은	-14500
▁바이러	-14501
▁운전도	-14502
국해에서	-14503
끈해지고	-14504
먹으려면	-14505
석하다가	-14506
신거예요	-14507
신하라고	-14508
심동체가	-14509
쌈밥이다	-14510
아들이는	-14511
아이막은	-14512
안석이다	-14513
어기술을	-14514
어나가고	-14515
어둡니다	-14516
어묵이란	-14517
어오르고	-14518
업체까지	-14519
엇갈리게	-14520
엑기스인	-14521
여나가는	-14522
여준다고	-14523
였을까요	-14524
오도씨의	-14525
오르고요	-14526
온다든가	-14527
요로움을	-14528
우나케아	-14529
우선이다	-14530
웅동체가	-14531
이꾼들이	-14532
이스북이	-14533
일월부터	-14534
일지라도	-14535
임배추를	-14536
자실하며	-14537
저분하다	-14538
접목에서	-14539
제작에선	-14540
종대왕의	-14541
종신이다	-14542
종양으로	-14543
주머니가	-14544
주머니로	-14545
지사님도	-14546
지역으로	-14547
책이었던	-14548
천여평의	-14549
체전까지	-14550
쿠라지마	-14551
탄해지기	-14552
탕해야만	-14553
투성이다	-14554
툴거려도	-14555
표되면서	-14556
필요종인	-14557
하느냐에	-14558
하려면은	-14559
핥아준다	-14560
해야할까	-14561
해줬으면	-14562
했으리라	-14563
했을까요	-14564
혀질수록	-14565
화작용에	-14566
활동으로	-14567
휴일이고	-14568
,2015	-14569
,2016	-14570
ensis	-14571
ochin	-14572
▁1,18	-14573
▁1600	-14574
▁1946	-14575
▁4300	-14576
▁가구보다	-14577
▁가닥으로	-14578
▁가로막혀	-14579
▁가물치가	-14580
▁가물치는	-14581
▁가뭄때문	-14582
▁가버려요	-14583
▁가보기로	-14584
▁가오리가	-14585
▁가져오신	-14586
▁가져와야	-14587
▁가주세요	-14588
▁각광받는	-14589
▁각광받은	-14590
▁각지에서	-14591
▁갈비구이	-14592
▁갈비찜이	-14593
▁갈아입은	-14594
▁감지하기	-14595
▁갑옷처럼	-14596
▁갑작스런	-14597
▁갑훈씨의	-14598
▁값어치는	-14599
▁차량과	-14600
▁차량들	-14601
▁착용은	-14602
▁천공을	-14603
▁카펫은	-14604
▁칼슘과	-14605
▁칼슘의	-14606
▁칼슘이	-14607
▁통화해	-14608
▁파도와	-14609
▁파도쳐	-14610
▁하역이	-14611
▁한방울	-14612
▁행동반	-14613
▁허용하	-14614
▁힘겹고	-14615
귀뚜라미	-14616
소년이다	-14617
▁가셨는데	-14618
▁강남시외	-14619
▁강타했고	-14620
▁강해지고	-14621
▁강화하는	-14622
▁갚는다고	-14623
▁개인전과	-14624
▁개인전만	-14625
▁개척되지	-14626
▁개척해서	-14627
▁객식구로	-14628
▁거기에다	-14629
▁거두면서	-14630
▁거듭하다	-14631
▁거래처를	-14632
▁거름망에	-14633
▁거미줄만	-14634
▁거북이가	-14635
▁거북이를	-14636
▁거세지자	-14637
▁거짓말도	-14638
▁거짓말의	-14639
▁거칠기도	-14640
▁거칠어질	-14641
▁걱정돼서	-14642
▁건네주면	-14643
▁건드려서	-14644
▁건드리지	-14645
▁걷어내고	-14646
▁걷어낸다	-14647
▁검은색은	-14648
▁검정색의	-14649
▁검출해야	-14650
▁것입니까	-14651
▁겉모양이	-14652
▁겨울철에	-14653
▁견고하게	-14654
▁견고함이	-14655
▁결혼예물	-14656
▁경로들이	-14657
▁경쾌한데	-14658
▁계산하고	-14659
▁계셔야죠	-14660
▁계속되니	-14661
▁계시면서	-14662
▁계십니까	-14663
▁계획서를	-14664
▁고가이다	-14665
▁고구마순	-14666
▁고기떼를	-14667
▁고대식당	-14668
▁고랑에는	-14669
▁고려하며	-14670
▁고모한테	-14671
▁고사리도	-14672
▁고생한거	-14673
▁고서에도	-14674
▁고수하는	-14675
▁고아준다	-14676
▁고요하던	-14677
▁고추밭일	-14678
▁고치상태	-14679
▁고치자고	-14680
▁고효율인	-14681
▁곡선으로	-14682
▁골목에서	-14683
▁	-14684
.	-14685
다	-14686
이	-14687
는	-14688
가	-14689
에	-14690
을	-14691
고	-14692
어	-14693
지	-14694
하	-14695
한	-14696
아	-14697
도	-14698
기	-14699
은	-14700
니	-14701
서	-14702
나	-14703
요	-14704
로	-14705
그	-14706
들	-14707
의	-14708
를	-14709
리	-14710
게	-14711
있	-14712
해	-14713
만	-14714
자	-14715
시	-14716
일	-14717
수	-14718
면	-14719
사	-14720
라	-14721
으	-14722
보	-14723
마	-14724
무	-14725
것	-14726
까	-14727
야	-14728
,	-14729
부	-14730
내	-14731
거	-14732
장	-14733
데	-14734
정	-14735
대	-14736
인	-14737
?	-14738
오	-14739
안	-14740
작	-14741
주	-14742
물	-14743
바	-14744
씨	-14745
없	-14746
때	-14747
려	-14748
상	-14749
제	-14750
간	-14751
전	-14752
위	-14753
생	-14754
0	-14755
습	-14756
모	-14757
여	-14758
우	-14759
과	-14760
할	-14761
소	-14762
금	-14763
러	-14764
진	-14765
조	-14766
버	-14767
않	-14768
치	-14769
되	-14770
히	-14771
산	-14772
음	-14773
비	-14774
했	-14775
와	-14776
업	-14777
구	-14778
성	-14779
말	-14780
선	-14781
남	-14782
래	-14783
동	-14784
더	-14785
문	-14786
좋	-14787
분	-14788
건	-14789
렇	-14790
원	-14791
운	-14792
식	-14793
많	-14794
었	-14795
신	-14796
입	-14797
세	-14798
런	-14799
람	-14800
먹	-14801
연	-14802
집	-14803
양	-14804
두	-14805
살	-14806
잘	-14807
드	-14808
저	-14809
된	-14810
같	-14811
년	-14812
중	-14813
유	-14814
미	-14815
편	-14816
속	-14817
약	-14818
1	-14819
예	-14820
차	-14821
손	-14822
날	-14823
머	-14824
벌	-14825
든	-14826
심	-14827
발	-14828
번	-14829
온	-14830
스	-14831
른	-14832
터	-14833
화	-14834
르	-14835
계	-14836
못	-14837
각	-14838
통	-14839
합	-14840
올	-14841
잡	-14842
용	-14843
걸	-14844
불	-14845
적	-14846
돌	-14847
던	-14848
방	-14849
질	-14850
경	-14851
엄	-14852
공	-14853
재	-14854
힘	-14855
배	-14856
단	-14857
개	-14858
준	-14859
새	-14860
늘	-14861
달	-14862
매	-14863
곳	-14864
루	-14865
반	-14866
초	-14867
실	-14868
난	-14869
처	-14870
순	-14871
줄	-14872
당	-14873
직	-14874
태	-14875
알	-14876
네	-14877
따	-14878
2	-14879
린	-14880
겨	-14881
찾	-14882
황	-14883
져	-14884
느	-14885
종	-14886
채	-14887
복	-14888
겠	-14889
석	-14890
맛	-14891
왔	-14892
3	-14893
농	-14894
명	-14895
체	-14896
디	-14897
며	-14898
놓	-14899
영	-14900
색	-14901
았	-14902
천	-14903
님	-14904
본	-14905
길	-14906
워	-14907
름	-14908
추	-14909
결	-14910
확	-14911
력	-14912
호	-14913
또	-14914
강	-14915
너	-14916
목	-14917
파	-14918
갈	-14919
섯	-14920
특	-14921
막	-14922
귀	-14923
품	-14924
열	-14925
피	-14926
빠	-14927
절	-14928
5	-14929
얼	-14930
최	-14931
타	-14932
국	-14933
긴	-14934
넣	-14935
울	-14936
점	-14937
눈	-14938
죠	-14939
감	-14940
갑	-14941
끝	-14942
란	-14943
록	-14944
함	-14945
험	-14946
근	-14947
크	-14948
청	-14949
키	-14950
망	-14951
랑	-14952
후	-14953
관	-14954
노	-14955
백	-14956
별	-14957
향	-14958
큼	-14959
토	-14960
격	-14961
참	-14962
큰	-14963
박	-14964
행	-14965
형	-14966
독	-14967
돼	-14968
왜	-14969
빨	-14970
쓰	-14971
몸	-14972
잖	-14973
등	-14974
민	-14975
받	-14976
역	-14977
럼	-14978
4	-14979
맞	-14980
딸	-14981
항	-14982
움	-14983
테	-14984
좀	-14985
취	-14986
김	-14987
삼	-14988
철	-14989
골	-14990
접	-14991
께	-14992
낸	-14993
떨	-14994
넘	-14995
담	-14996
됐	-14997
뿌	-14998
료	-14999
출	-15000
봐	-15001
쪽	-15002
누	-15003
레	-15004
죽	-15005
째	-15006
포	-15007
졌	-15008
액	-15009
잠	-15010
변	-15011
월	-15012
침	-15013
혼	-15014
붙	-15015
앞	-15016
애	-15017
홍	-15018
벽	-15019
완	-15020
필	-15021
법	-15022
십	-15023
싶	-15024
견	-15025
숙	-15026
렸	-15027
밥	-15028
칠	-15029
활	-15030
줘	-15031
효	-15032
급	-15033
녀	-15034
능	-15035
판	-15036
뭐	-15037
족	-15038
깨	-15039
먼	-15040
'	-15041
광	-15042
송	-15043
술	-15044
회	-15045
친	-15046
높	-15047
언	-15048
착	-15049
평	-15050
겁	-15051
끼	-15052
땅	-15053
럽	-15054
쳐	-15055
현	-15056
희	-15057
락	-15058
숨	-15059
굴	-15060
듯	-15061
쉽	-15062
표	-15063
봉	-15064
트	-15065
릴	-15066
6	-15067
났	-15068
둘	-15069
염	-15070
창	-15071
외	-15072
잔	-15073
될	-15074
됩	-15075
설	-15076
충	-15077
돈	-15078
옥	-15079
투	-15080
셨	-15081
육	-15082
캐	-15083
팔	-15084
교	-15085
꾸	-15086
덕	-15087
득	-15088
밖	-15089
밤	-15090
쉬	-15091
떻	-15092
빛	-15093
엇	-15094
프	-15095
꺼	-15096
꽃	-15097
임	-15098
탄	-15099
학	-15100
밭	-15101
풀	-15102
환	-15103
걱	-15104
깊	-15105
꾼	-15106
허	-15107
혀	-15108
척	-15109
m	-15110
밀	-15111
켜	-15112
갔	-15113
꿀	-15114
답	-15115
뒤	-15116
뜨	-15117
량	-15118
풍	-15119
몇	-15120
병	-15121
엔	-15122
냥	-15123
메	-15124
써	-15125
씩	-15126
칼	-15127
k	-15128
림	-15129
몰	-15130
챙	-15131
짝	-15132
7	-15133
끓	-15134
떤	-15135
볼	-15136
왕	-15137
짜	-15138
군	-15139
떼	-15140
찬	-15141
익	-15142
틀	-15143
싸	-15144
8	-15145
g	-15146
닌	-15147
닥	-15148
암	-15149
얻	-15150
찍	-15151
9	-15152
껍	-15153
슬	-15154
론	-15155
슨	-15156
억	-15157
짓	-15158
택	-15159
!	-15160
커	-15161
류	-15162
승	-15163
얘	-15164
립	-15165
카	-15166
혹	-15167
흙	-15168
뿐	-15169
릇	-15170
밑	-15171
였	-15172
찔	-15173
딱	-15174
베	-15175
욱	-15176
코	-15177
털	-15178
늦	-15179
닐	-15180
뭔	-15181
즘	-15182
령	-15183
묵	-15184
옛	-15185
웃	-15186
축	-15187
깔	-15188
녹	-15189
떠	-15190
멍	-15191
삶	-15192
증	-15193
갖	-15194
냄	-15195
냐	-15196
섬	-15197
응	-15198
잎	-15199
책	-15200
탁	-15201
곡	-15202
꼭	-15203
늑	-15204
균	-15205
뭘	-15206
봄	-15207
숯	-15208
쓸	-15209
펴	-15210
곤	-15211
괜	-15212
글	-15213
듣	-15214
랐	-15215
쁘	-15216
쁜	-15217
솜	-15218
옆	-15219
징	-15220
탕	-15221
혈	-15222
훈	-15223
놀	-15224
씻	-15225
옮	-15226
찌	-15227
꼬	-15228
끌	-15229
낙	-15230
낚	-15231
덩	-15232
북	-15233
빗	-15234
쇄	-15235
쟁	-15236
찮	-15237
검	-15238
꼼	-15239
렵	-15240
릅	-15241
톱	-15242
~	-15243
덜	-15244
랜	-15245
례	-15246
봤	-15247
섞	-15248
솥	-15249
숭	-15250
욕	-15251
첫	-15252
틈	-15253
냈	-15254
녁	-15255
닭	-15256
련	-15257
쌓	-15258
앉	-15259
폐	-15260
푸	-15261
힌	-15262
끄	-15263
끊	-15264
범	-15265
뼈	-15266
옷	-15267
잣	-15268
쳤	-15269
폭	-15270
흔	-15271
값	-15272
규	-15273
꿈	-15274
둥	-15275
땀	-15276
뚝	-15277
멈	-15278
묻	-15279
웠	-15280
총	-15281
춰	-15282
킨	-15283
픈	-15284
궁	-15285
낳	-15286
늄	-15287
뜻	-15288
맨	-15289
c	-15290
끗	-15291
닷	-15292
뛰	-15293
롭	-15294
맡	-15295
셔	-15296
윤	-15297
짐	-15298
흘	-15299
권	-15300
깎	-15301
멀	-15302
멧	-15303
빼	-15304
촉	-15305
킬	-15306
핀	-15307
휘	-15308
갯	-15309
괴	-15310
낮	-15311
낼	-15312
닿	-15313
뚫	-15314
벗	-15315
엉	-15316
엽	-15317
잊	-15318
춘	-15319
콩	-15320
흐	-15321
곧	-15322
굽	-15323
꽁	-15324
늬	-15325
럴	-15326
벼	-15327
잃	-15328
탈	-15329
톤	-15330
퍼	-15331
헤	-15332
흑	-15333
걷	-15334
겐	-15335
겼	-15336
굵	-15337
납	-15338
냉	-15339
멸	-15340
섭	-15341
섰	-15342
센	-15343
쇳	-15344
패	-15345
획	-15346
껴	-15347
똑	-15348
맥	-15349
쇠	-15350
싫	-15351
싹	-15352
씬	-15353
악	-15354
옻	-15355
쩍	-15356
튀	-15357
홀	-15358
훨	-15359
갓	-15360
겉	-15361
굉	-15362
돕	-15363
듭	-15364
랍	-15365
랬	-15366
숲	-15367
썩	-15368
압	-15369
얀	-15370
즐	-15371
칡	-15372
퉁	-15373
펼	-15374
햇	-15375
흡	-15376
극	-15377
꽤	-15378
끔	-15379
놔	-15380
뚜	-15381
릿	-15382
블	-15383
삭	-15384
싱	-15385
쏟	-15386
쓴	-15387
젓	-15388
줬	-15389
%	-15390
굳	-15391
끈	-15392
넓	-15393
듬	-15394
밝	-15395
밟	-15396
뱀	-15397
뽑	-15398
뽕	-15399
삽	-15400
쌀	-15401
썰	-15402
앗	-15403
옵	-15404
젊	-15405
존	-15406
줍	-15407
찰	-15408
낌	-15409
낫	-15410
냅	-15411
둔	-15412
띄	-15413
램	-15414
맑	-15415
몽	-15416
붉	-15417
빚	-15418
뻔	-15419
쉴	-15420
슴	-15421
얇	-15422
윗	-15423
튼	-15424
티	-15425
혜	-15426
곱	-15427
깃	-15428
떡	-15429
뜩	-15430
빈	-15431
싼	-15432
율	-15433
즉	-15434
측	-15435
콤	-15436
텐	-15437
겹	-15438
깐	-15439
껏	-15440
놨	-15441
닙	-15442
덮	-15443
률	-15444
묘	-15445
뭇	-15446
믿	-15447
붓	-15448
싣	-15449
엿	-15450
쯤	-15451
층	-15452
퇴	-15453
휴	-15454
념	-15455
딪	-15456
땐	-15457
뤄	-15458
맙	-15459
슷	-15460
씹	-15461
졸	-15462
찜	-15463
곁	-15464
긋	-15465
껑	-15466
꿔	-15467
널	-15468
논	-15469
뇨	-15470
돔	-15471
랙	-15472
롤	-15473
쥐	-15474
짙	-15475
컷	-15476
탐	-15477
팀	-15478
팽	-15479
협	-15480
궈	-15481
넷	-15482
눌	-15483
닫	-15484
략	-15485
렴	-15486
멋	-15487
묶	-15488
밧	-15489
뱃	-15490
벵	-15491
볶	-15492
붕	-15493
셈	-15494
솔	-15495
씀	-15496
즙	-15497
쫓	-15498
칫	-15499
쾌	-15500
퀴	-15501
푹	-15502
혁	-15503
혔	-15504
훌	-15505
객	-15506
겸	-15507
꽉	-15508
뉴	-15509
닮	-15510
딘	-15511
럭	-15512
몬	-15513
볕	-15514
빵	-15515
뻗	-15516
셋	-15517
솟	-15518
쏘	-15519
젖	-15520
좁	-15521
짧	-15522
쩌	-15523
컴	-15524
켰	-15525
텔	-15526
팅	-15527
헌	-15528
흰	-15529
겪	-15530
깜	-15531
꼽	-15532
꽂	-15533
낯	-15534
닦	-15535
둠	-15536
뒷	-15537
땜	-15538
랄	-15539
랴	-15540
빌	-15541
뿔	-15542
얗	-15543
웅	-15544
즈	-15545
쪄	-15546
쫄	-15547
찼	-15548
칙	-15549
캔	-15550
케	-15551
툴	-15552
갛	-15553
곰	-15554
뀌	-15555
낭	-15556
뇌	-15557
늙	-15558
덤	-15559
덧	-15560
둑	-15561
둬	-15562
띠	-15563
렁	-15564
맣	-15565
몫	-15566
브	-15567
슘	-15568
쌉	-15569
엎	-15570
왠	-15571
읍	-15572
죄	-15573
촬	-15574
춤	-15575
쿠	-15576
탱	-15577
팬	-15578
퓨	-15579
플	-15580
흠	-15581
(	-15582
)	-15583
C	-15584
M	-15585
깁	-15586
깥	-15587
댄	-15588
땄	-15589
똥	-15590
뚱	-15591
뜬	-15592
렌	-15593
롯	-15594
룬	-15595
맘	-15596
맺	-15597
뭉	-15598
숫	-15599
싯	-15600
쌍	-15601
썼	-15602
웬	-15603
잇	-15604
짠	-15605
쩐	-15606
쪼	-15607
찢	-15608
촘	-15609
츠	-15610
탓	-15611
턱	-15612
흉	-15613
s	-15614
걀	-15615
괭	-15616
넝	-15617
녔	-15618
놈	-15619
눠	-15620
늠	-15621
덥	-15622
뎌	-15623
돋	-15624
딴	-15625
뗄	-15626
뜰	-15627
띈	-15628
랫	-15629
렀	-15630
릎	-15631
맴	-15632
맹	-15633
벅	-15634
볍	-15635
봅	-15636
빡	-15637
뽐	-15638
숟	-15639
쉼	-15640
슈	-15641
쐬	-15642
엮	-15643
옹	-15644
쩔	-15645
찻	-15646
첨	-15647
췄	-15648
캤	-15649
컨	-15650
켠	-15651
쿨	-15652
클	-15653
팡	-15654
펫	-15655
핵	-15656
횟	-15657
힐	-15658
T	-15659
e	-15660
i	-15661
n	-15662
°	-15663
갚	-15664
귤	-15665
긁	-15666
꺾	-15667
낄	-15668
댁	-15669
댈	-15670
덖	-15671
딜	-15672
랗	-15673
룩	-15674
뭄	-15675
빴	-15676
빻	-15677
뻥	-15678
뽀	-15679
뿜	-15680
쁨	-15681
삐	-15682
샤	-15683
셀	-15684
션	-15685
셰	-15686
쑥	-15687
왼	-15688
웨	-15689
잤	-15690
젠	-15691
쨌	-15692
쭉	-15693
촌	-15694
칩	-15695
칭	-15696
컵	-15697
콜	-15698
텃	-15699
툼	-15700
페	-15701
홈	-15702
:	-15703
K	-15704
V	-15705
h	-15706
p	-15707
r	-15708
걔	-15709
굶	-15710
깝	-15711
꼴	-15712
꿩	-15713
넨	-15714
뎅	-15715
둡	-15716
딛	-15717
땠	-15718
뜯	-15719
띤	-15720
룰	-15721
룹	-15722
룽	-15723
링	-15724
뱉	-15725
빙	-15726
뺀	-15727
뺏	-15728
뻐	-15729
뻑	-15730
쁠	-15731
쌈	-15732
쏙	-15733
씁	-15734
얹	-15735
얽	-15736
엌	-15737
읽	-15738
잉	-15739
잦	-15740
좌	-15741
줏	-15742
짊	-15743
짭	-15744
찹	-15745
춥	-15746
켓	-15747
킷	-15748
탔	-15749
텅	-15750
템	-15751
톡	-15752
팎	-15753
팠	-15754
퍽	-15755
펄	-15756
푼	-15757
픔	-15758
핑	-15759
헛	-15760
헬	-15761
홉	-15762
-	-15763
A	-15764
E	-15765
R	-15766
W	-15767
a	-15768
o	-15769
갇	-15770
갱	-15771
깬	-15772
꺽	-15773
꼈	-15774
꿋	-15775
꿍	-15776
뀐	-15777
뀔	-15778
끽	-15779
낀	-15780
넉	-15781
넌	-15782
녕	-15783
눅	-15784
눕	-15785
닳	-15786
닻	-15787
덟	-15788
덴	-15789
땡	-15790
떄	-15791
뜸	-15792
랏	-15793
렉	-15794
렬	-15795
롱	-15796
뢰	-15797
륙	-15798
륨	-15799
륭	-15800
맏	-15801
멘	-15802
멩	-15803
뭍	-15804
므	-15805
밋	-15806
밸	-15807
벨	-15808
빔	-15809
뻣	-15810
뾰	-15811
쁩	-15812
샀	-15813
샅	-15814
섣	-15815
셜	-15816
솎	-15817
썬	-15818
썹	-15819
쎄	-15820
쏜	-15821
쓱	-15822
씌	-15823
융	-15824
윷	-15825
잿	-15826
쟤	-15827
좔	-15828
짚	-15829
짤	-15830
짬	-15831
찐	-15832
찧	-15833
첩	-15834
춧	-15835
츰	-15836
칸	-15837
캄	-15838
컫	-15839
컸	-15840
콥	-15841
큽	-15842
킵	-15843
텨	-15844
톨	-15845
톳	-15846
툭	-15847
툰	-15848
튕	-15849
틋	-15850
틱	-15851
팍	-15852
팥	-15853
펜	-15854
폼	-15855
핏	-15856
헹	-15857
훤	-15858
흩	-15859
힙	-15860
/	-15861
D	-15862
H	-15863
I	-15864
J	-15865
N	-15866
P	-15867
Q	-15868
l	-15869
t	-15870
u	-15871
겄	-15872
겋	-15873
괄	-15874
괘	-15875
굼	-15876
굿	-15877
궅	-15878
궤	-15879
귓	-15880
꿨	-15881
낡	-15882
낱	-15883
냇	-15884
넛	-15885
넸	-15886
놋	-15887
댔	-15888
델	-15889
됨	-15890
듦	-15891
딤	-15892
땁	-15893
땔	-15894
떴	-15895
뗏	-15896
뚤	-15897
뛸	-15898
뜹	-15899
띕	-15900
랖	-15901
럿	-15902
렘	-15903
렛	-15904
뤘	-15905
멉	-15906
멎	-15907
멜	-15908
몹	-15909
뭡	-15910
뭣	-15911
뮬	-15912
믹	-15913
밍	-15914
벚	-15915
벤	-15916
볏	-15917
봇	-15918
뵈	-15919
붐	-15920
빕	-15921
뺄	-15922
뺐	-15923
뻇	-15924
뻘	-15925
뼘	-15926
뼛	-15927
뿍	-15928
삯	-15929
삿	-15930
샐	-15931
샘	-15932
숱	-15933
숴	-15934
쉐	-15935
쉰	-15936
슭	-15937
썽	-15938
쏭	-15939
쑤	-15940
씸	-15941
앓	-15942
앙	-15943
앨	-15944
앱	-15945
얌	-15946
얕	-15947
엊	-15948
엑	-15949
엘	-15950
엠	-15951
옅	-15952
옇	-15953
옳	-15954
왈	-15955
왓	-15956
웁	-15957
웜	-15958
윙	-15959
젤	-15960
짱	-15961
쩜	-15962
쪘	-15963
쫙	-15964
쬐	-15965
쬔	-15966
챈	-15967
챘	-15968
촛	-15969
쵸	-15970
칵	-15971
캘	-15972
캠	-15973
캡	-15974
컥	-15975
콧	-15976
탬	-15977
탰	-15978
턴	-15979
텀	-15980
튈	-15981
팝	-15982
펌	-15983
펑	-15984
폴	-15985
픕	-15986
픽	-15987
핍	-15988
핥	-15989
헥	-15990
헷	-15991
홧	-15992
횡	-15993
훔	-15994
휩	-15995
흥	-15996
